{
  "version": "1.0",
  "truncation": null,
  "padding": null,
  "added_tokens": [
    {
      "id": 0,
      "content": "<s>",
      "single_word": false,
      "lstrip": false,
      "rstrip": false,
      "normalized": false,
      "special": true
    },
    {
      "id": 1,
      "content": "<pad>",
      "single_word": false,
      "lstrip": false,
      "rstrip": false,
      "normalized": false,
      "special": true
    },
    {
      "id": 2,
      "content": "</s>",
      "single_word": false,
      "lstrip": false,
      "rstrip": false,
      "normalized": false,
      "special": true
    },
    {
      "id": 3,
      "content": "[UNK]",
      "single_word": false,
      "lstrip": false,
      "rstrip": false,
      "normalized": false,
      "special": true
    },
    {
      "id": 4,
      "content": "<mask>",
      "single_word": false,
      "lstrip": false,
      "rstrip": false,
      "normalized": false,
      "special": true
    },
    {
      "id": 5,
      "content": "<unused0>",
      "single_word": false,
      "lstrip": false,
      "rstrip": false,
      "normalized": false,
      "special": true
    },
    {
      "id": 6,
      "content": "<unused1>",
      "single_word": false,
      "lstrip": false,
      "rstrip": false,
      "normalized": false,
      "special": true
    },
    {
      "id": 7,
      "content": "<unused2>",
      "single_word": false,
      "lstrip": false,
      "rstrip": false,
      "normalized": false,
      "special": true
    },
    {
      "id": 8,
      "content": "<unused3>",
      "single_word": false,
      "lstrip": false,
      "rstrip": false,
      "normalized": false,
      "special": true
    },
    {
      "id": 9,
      "content": "<unused4>",
      "single_word": false,
      "lstrip": false,
      "rstrip": false,
      "normalized": false,
      "special": true
    },
    {
      "id": 10,
      "content": "<unused5>",
      "single_word": false,
      "lstrip": false,
      "rstrip": false,
      "normalized": false,
      "special": true
    },
    {
      "id": 11,
      "content": "<unused6>",
      "single_word": false,
      "lstrip": false,
      "rstrip": false,
      "normalized": false,
      "special": true
    },
    {
      "id": 12,
      "content": "<unused7>",
      "single_word": false,
      "lstrip": false,
      "rstrip": false,
      "normalized": false,
      "special": true
    },
    {
      "id": 13,
      "content": "<unused8>",
      "single_word": false,
      "lstrip": false,
      "rstrip": false,
      "normalized": false,
      "special": true
    },
    {
      "id": 14,
      "content": "<unused9>",
      "single_word": false,
      "lstrip": false,
      "rstrip": false,
      "normalized": false,
      "special": true
    },
    {
      "id": 15,
      "content": "<unused10>",
      "single_word": false,
      "lstrip": false,
      "rstrip": false,
      "normalized": false,
      "special": true
    },
    {
      "id": 16,
      "content": "<unused11>",
      "single_word": false,
      "lstrip": false,
      "rstrip": false,
      "normalized": false,
      "special": true
    },
    {
      "id": 17,
      "content": "<unused12>",
      "single_word": false,
      "lstrip": false,
      "rstrip": false,
      "normalized": false,
      "special": true
    },
    {
      "id": 18,
      "content": "<unused13>",
      "single_word": false,
      "lstrip": false,
      "rstrip": false,
      "normalized": false,
      "special": true
    },
    {
      "id": 19,
      "content": "<unused14>",
      "single_word": false,
      "lstrip": false,
      "rstrip": false,
      "normalized": false,
      "special": true
    },
    {
      "id": 20,
      "content": "<unused15>",
      "single_word": false,
      "lstrip": false,
      "rstrip": false,
      "normalized": false,
      "special": true
    },
    {
      "id": 21,
      "content": "<unused16>",
      "single_word": false,
      "lstrip": false,
      "rstrip": false,
      "normalized": false,
      "special": true
    },
    {
      "id": 22,
      "content": "<unused17>",
      "single_word": false,
      "lstrip": false,
      "rstrip": false,
      "normalized": false,
      "special": true
    },
    {
      "id": 23,
      "content": "<unused18>",
      "single_word": false,
      "lstrip": false,
      "rstrip": false,
      "normalized": false,
      "special": true
    },
    {
      "id": 24,
      "content": "<unused19>",
      "single_word": false,
      "lstrip": false,
      "rstrip": false,
      "normalized": false,
      "special": true
    },
    {
      "id": 25,
      "content": "<unused20>",
      "single_word": false,
      "lstrip": false,
      "rstrip": false,
      "normalized": false,
      "special": true
    },
    {
      "id": 26,
      "content": "<unused21>",
      "single_word": false,
      "lstrip": false,
      "rstrip": false,
      "normalized": false,
      "special": true
    },
    {
      "id": 27,
      "content": "<unused22>",
      "single_word": false,
      "lstrip": false,
      "rstrip": false,
      "normalized": false,
      "special": true
    },
    {
      "id": 28,
      "content": "<unused23>",
      "single_word": false,
      "lstrip": false,
      "rstrip": false,
      "normalized": false,
      "special": true
    },
    {
      "id": 29,
      "content": "<unused24>",
      "single_word": false,
      "lstrip": false,
      "rstrip": false,
      "normalized": false,
      "special": true
    },
    {
      "id": 30,
      "content": "<unused25>",
      "single_word": false,
      "lstrip": false,
      "rstrip": false,
      "normalized": false,
      "special": true
    },
    {
      "id": 31,
      "content": "<unused26>",
      "single_word": false,
      "lstrip": false,
      "rstrip": false,
      "normalized": false,
      "special": true
    },
    {
      "id": 32,
      "content": "<unused27>",
      "single_word": false,
      "lstrip": false,
      "rstrip": false,
      "normalized": false,
      "special": true
    },
    {
      "id": 33,
      "content": "<unused28>",
      "single_word": false,
      "lstrip": false,
      "rstrip": false,
      "normalized": false,
      "special": true
    },
    {
      "id": 34,
      "content": "<unused29>",
      "single_word": false,
      "lstrip": false,
      "rstrip": false,
      "normalized": false,
      "special": true
    },
    {
      "id": 35,
      "content": "<unused30>",
      "single_word": false,
      "lstrip": false,
      "rstrip": false,
      "normalized": false,
      "special": true
    },
    {
      "id": 36,
      "content": "<unused31>",
      "single_word": false,
      "lstrip": false,
      "rstrip": false,
      "normalized": false,
      "special": true
    },
    {
      "id": 37,
      "content": "<unused32>",
      "single_word": false,
      "lstrip": false,
      "rstrip": false,
      "normalized": false,
      "special": true
    },
    {
      "id": 38,
      "content": "<unused33>",
      "single_word": false,
      "lstrip": false,
      "rstrip": false,
      "normalized": false,
      "special": true
    },
    {
      "id": 39,
      "content": "<unused34>",
      "single_word": false,
      "lstrip": false,
      "rstrip": false,
      "normalized": false,
      "special": true
    },
    {
      "id": 40,
      "content": "<unused35>",
      "single_word": false,
      "lstrip": false,
      "rstrip": false,
      "normalized": false,
      "special": true
    },
    {
      "id": 41,
      "content": "<unused36>",
      "single_word": false,
      "lstrip": false,
      "rstrip": false,
      "normalized": false,
      "special": true
    },
    {
      "id": 42,
      "content": "<unused37>",
      "single_word": false,
      "lstrip": false,
      "rstrip": false,
      "normalized": false,
      "special": true
    },
    {
      "id": 43,
      "content": "<unused38>",
      "single_word": false,
      "lstrip": false,
      "rstrip": false,
      "normalized": false,
      "special": true
    },
    {
      "id": 44,
      "content": "<unused39>",
      "single_word": false,
      "lstrip": false,
      "rstrip": false,
      "normalized": false,
      "special": true
    },
    {
      "id": 45,
      "content": "<unused40>",
      "single_word": false,
      "lstrip": false,
      "rstrip": false,
      "normalized": false,
      "special": true
    },
    {
      "id": 46,
      "content": "<unused41>",
      "single_word": false,
      "lstrip": false,
      "rstrip": false,
      "normalized": false,
      "special": true
    },
    {
      "id": 47,
      "content": "<unused42>",
      "single_word": false,
      "lstrip": false,
      "rstrip": false,
      "normalized": false,
      "special": true
    },
    {
      "id": 48,
      "content": "<unused43>",
      "single_word": false,
      "lstrip": false,
      "rstrip": false,
      "normalized": false,
      "special": true
    },
    {
      "id": 49,
      "content": "<unused44>",
      "single_word": false,
      "lstrip": false,
      "rstrip": false,
      "normalized": false,
      "special": true
    },
    {
      "id": 50,
      "content": "<unused45>",
      "single_word": false,
      "lstrip": false,
      "rstrip": false,
      "normalized": false,
      "special": true
    },
    {
      "id": 51,
      "content": "<unused46>",
      "single_word": false,
      "lstrip": false,
      "rstrip": false,
      "normalized": false,
      "special": true
    },
    {
      "id": 52,
      "content": "<unused47>",
      "single_word": false,
      "lstrip": false,
      "rstrip": false,
      "normalized": false,
      "special": true
    },
    {
      "id": 53,
      "content": "<unused48>",
      "single_word": false,
      "lstrip": false,
      "rstrip": false,
      "normalized": false,
      "special": true
    },
    {
      "id": 54,
      "content": "<unused49>",
      "single_word": false,
      "lstrip": false,
      "rstrip": false,
      "normalized": false,
      "special": true
    },
    {
      "id": 55,
      "content": "<unused50>",
      "single_word": false,
      "lstrip": false,
      "rstrip": false,
      "normalized": false,
      "special": true
    },
    {
      "id": 56,
      "content": "<unused51>",
      "single_word": false,
      "lstrip": false,
      "rstrip": false,
      "normalized": false,
      "special": true
    },
    {
      "id": 57,
      "content": "<unused52>",
      "single_word": false,
      "lstrip": false,
      "rstrip": false,
      "normalized": false,
      "special": true
    },
    {
      "id": 58,
      "content": "<unused53>",
      "single_word": false,
      "lstrip": false,
      "rstrip": false,
      "normalized": false,
      "special": true
    },
    {
      "id": 59,
      "content": "<unused54>",
      "single_word": false,
      "lstrip": false,
      "rstrip": false,
      "normalized": false,
      "special": true
    },
    {
      "id": 60,
      "content": "<unused55>",
      "single_word": false,
      "lstrip": false,
      "rstrip": false,
      "normalized": false,
      "special": true
    },
    {
      "id": 61,
      "content": "<unused56>",
      "single_word": false,
      "lstrip": false,
      "rstrip": false,
      "normalized": false,
      "special": true
    },
    {
      "id": 62,
      "content": "<unused57>",
      "single_word": false,
      "lstrip": false,
      "rstrip": false,
      "normalized": false,
      "special": true
    },
    {
      "id": 63,
      "content": "<unused58>",
      "single_word": false,
      "lstrip": false,
      "rstrip": false,
      "normalized": false,
      "special": true
    },
    {
      "id": 64,
      "content": "<unused59>",
      "single_word": false,
      "lstrip": false,
      "rstrip": false,
      "normalized": false,
      "special": true
    },
    {
      "id": 65,
      "content": "<unused60>",
      "single_word": false,
      "lstrip": false,
      "rstrip": false,
      "normalized": false,
      "special": true
    },
    {
      "id": 66,
      "content": "<unused61>",
      "single_word": false,
      "lstrip": false,
      "rstrip": false,
      "normalized": false,
      "special": true
    },
    {
      "id": 67,
      "content": "<unused62>",
      "single_word": false,
      "lstrip": false,
      "rstrip": false,
      "normalized": false,
      "special": true
    },
    {
      "id": 68,
      "content": "<unused63>",
      "single_word": false,
      "lstrip": false,
      "rstrip": false,
      "normalized": false,
      "special": true
    },
    {
      "id": 69,
      "content": "<unused64>",
      "single_word": false,
      "lstrip": false,
      "rstrip": false,
      "normalized": false,
      "special": true
    },
    {
      "id": 70,
      "content": "<unused65>",
      "single_word": false,
      "lstrip": false,
      "rstrip": false,
      "normalized": false,
      "special": true
    },
    {
      "id": 71,
      "content": "<unused66>",
      "single_word": false,
      "lstrip": false,
      "rstrip": false,
      "normalized": false,
      "special": true
    },
    {
      "id": 72,
      "content": "<unused67>",
      "single_word": false,
      "lstrip": false,
      "rstrip": false,
      "normalized": false,
      "special": true
    },
    {
      "id": 73,
      "content": "<unused68>",
      "single_word": false,
      "lstrip": false,
      "rstrip": false,
      "normalized": false,
      "special": true
    },
    {
      "id": 74,
      "content": "<unused69>",
      "single_word": false,
      "lstrip": false,
      "rstrip": false,
      "normalized": false,
      "special": true
    },
    {
      "id": 75,
      "content": "<unused70>",
      "single_word": false,
      "lstrip": false,
      "rstrip": false,
      "normalized": false,
      "special": true
    },
    {
      "id": 76,
      "content": "<unused71>",
      "single_word": false,
      "lstrip": false,
      "rstrip": false,
      "normalized": false,
      "special": true
    },
    {
      "id": 77,
      "content": "<unused72>",
      "single_word": false,
      "lstrip": false,
      "rstrip": false,
      "normalized": false,
      "special": true
    },
    {
      "id": 78,
      "content": "<unused73>",
      "single_word": false,
      "lstrip": false,
      "rstrip": false,
      "normalized": false,
      "special": true
    },
    {
      "id": 79,
      "content": "<unused74>",
      "single_word": false,
      "lstrip": false,
      "rstrip": false,
      "normalized": false,
      "special": true
    },
    {
      "id": 80,
      "content": "<unused75>",
      "single_word": false,
      "lstrip": false,
      "rstrip": false,
      "normalized": false,
      "special": true
    },
    {
      "id": 81,
      "content": "<unused76>",
      "single_word": false,
      "lstrip": false,
      "rstrip": false,
      "normalized": false,
      "special": true
    },
    {
      "id": 82,
      "content": "<unused77>",
      "single_word": false,
      "lstrip": false,
      "rstrip": false,
      "normalized": false,
      "special": true
    },
    {
      "id": 83,
      "content": "<unused78>",
      "single_word": false,
      "lstrip": false,
      "rstrip": false,
      "normalized": false,
      "special": true
    },
    {
      "id": 84,
      "content": "<unused79>",
      "single_word": false,
      "lstrip": false,
      "rstrip": false,
      "normalized": false,
      "special": true
    },
    {
      "id": 85,
      "content": "<unused80>",
      "single_word": false,
      "lstrip": false,
      "rstrip": false,
      "normalized": false,
      "special": true
    },
    {
      "id": 86,
      "content": "<unused81>",
      "single_word": false,
      "lstrip": false,
      "rstrip": false,
      "normalized": false,
      "special": true
    },
    {
      "id": 87,
      "content": "<unused82>",
      "single_word": false,
      "lstrip": false,
      "rstrip": false,
      "normalized": false,
      "special": true
    },
    {
      "id": 88,
      "content": "<unused83>",
      "single_word": false,
      "lstrip": false,
      "rstrip": false,
      "normalized": false,
      "special": true
    },
    {
      "id": 89,
      "content": "<unused84>",
      "single_word": false,
      "lstrip": false,
      "rstrip": false,
      "normalized": false,
      "special": true
    },
    {
      "id": 90,
      "content": "<unused85>",
      "single_word": false,
      "lstrip": false,
      "rstrip": false,
      "normalized": false,
      "special": true
    },
    {
      "id": 91,
      "content": "<unused86>",
      "single_word": false,
      "lstrip": false,
      "rstrip": false,
      "normalized": false,
      "special": true
    },
    {
      "id": 92,
      "content": "<unused87>",
      "single_word": false,
      "lstrip": false,
      "rstrip": false,
      "normalized": false,
      "special": true
    },
    {
      "id": 93,
      "content": "<unused88>",
      "single_word": false,
      "lstrip": false,
      "rstrip": false,
      "normalized": false,
      "special": true
    },
    {
      "id": 94,
      "content": "<unused89>",
      "single_word": false,
      "lstrip": false,
      "rstrip": false,
      "normalized": false,
      "special": true
    },
    {
      "id": 95,
      "content": "<unused90>",
      "single_word": false,
      "lstrip": false,
      "rstrip": false,
      "normalized": false,
      "special": true
    },
    {
      "id": 96,
      "content": "<unused91>",
      "single_word": false,
      "lstrip": false,
      "rstrip": false,
      "normalized": false,
      "special": true
    },
    {
      "id": 97,
      "content": "<unused92>",
      "single_word": false,
      "lstrip": false,
      "rstrip": false,
      "normalized": false,
      "special": true
    },
    {
      "id": 98,
      "content": "<unused93>",
      "single_word": false,
      "lstrip": false,
      "rstrip": false,
      "normalized": false,
      "special": true
    },
    {
      "id": 99,
      "content": "<unused94>",
      "single_word": false,
      "lstrip": false,
      "rstrip": false,
      "normalized": false,
      "special": true
    },
    {
      "id": 100,
      "content": "<unused95>",
      "single_word": false,
      "lstrip": false,
      "rstrip": false,
      "normalized": false,
      "special": true
    },
    {
      "id": 101,
      "content": "<unused96>",
      "single_word": false,
      "lstrip": false,
      "rstrip": false,
      "normalized": false,
      "special": true
    },
    {
      "id": 102,
      "content": "<unused97>",
      "single_word": false,
      "lstrip": false,
      "rstrip": false,
      "normalized": false,
      "special": true
    },
    {
      "id": 103,
      "content": "<unused98>",
      "single_word": false,
      "lstrip": false,
      "rstrip": false,
      "normalized": false,
      "special": true
    },
    {
      "id": 104,
      "content": "<unused99>",
      "single_word": false,
      "lstrip": false,
      "rstrip": false,
      "normalized": false,
      "special": true
    }
  ],
  "normalizer": {
    "type": "BertNormalizer",
    "clean_text": true,
    "handle_chinese_chars": true,
    "strip_accents": true,
    "lowercase": false
  },
  "pre_tokenizer": {
    "type": "BertPreTokenizer"
  },
  "post_processor": null,
  "decoder": {
    "type": "WordPiece",
    "prefix": "##",
    "cleanup": true
  },
  "model": {
    "type": "WordPiece",
    "unk_token": "[UNK]",
    "continuing_subword_prefix": "##",
    "max_input_chars_per_word": 100,
    "vocab": {
      "<s>": 0,
      "<pad>": 1,
      "</s>": 2,
      "[UNK]": 3,
      "<mask>": 4,
      "<unused0>": 5,
      "<unused1>": 6,
      "<unused2>": 7,
      "<unused3>": 8,
      "<unused4>": 9,
      "<unused5>": 10,
      "<unused6>": 11,
      "<unused7>": 12,
      "<unused8>": 13,
      "<unused9>": 14,
      "<unused10>": 15,
      "<unused11>": 16,
      "<unused12>": 17,
      "<unused13>": 18,
      "<unused14>": 19,
      "<unused15>": 20,
      "<unused16>": 21,
      "<unused17>": 22,
      "<unused18>": 23,
      "<unused19>": 24,
      "<unused20>": 25,
      "<unused21>": 26,
      "<unused22>": 27,
      "<unused23>": 28,
      "<unused24>": 29,
      "<unused25>": 30,
      "<unused26>": 31,
      "<unused27>": 32,
      "<unused28>": 33,
      "<unused29>": 34,
      "<unused30>": 35,
      "<unused31>": 36,
      "<unused32>": 37,
      "<unused33>": 38,
      "<unused34>": 39,
      "<unused35>": 40,
      "<unused36>": 41,
      "<unused37>": 42,
      "<unused38>": 43,
      "<unused39>": 44,
      "<unused40>": 45,
      "<unused41>": 46,
      "<unused42>": 47,
      "<unused43>": 48,
      "<unused44>": 49,
      "<unused45>": 50,
      "<unused46>": 51,
      "<unused47>": 52,
      "<unused48>": 53,
      "<unused49>": 54,
      "<unused50>": 55,
      "<unused51>": 56,
      "<unused52>": 57,
      "<unused53>": 58,
      "<unused54>": 59,
      "<unused55>": 60,
      "<unused56>": 61,
      "<unused57>": 62,
      "<unused58>": 63,
      "<unused59>": 64,
      "<unused60>": 65,
      "<unused61>": 66,
      "<unused62>": 67,
      "<unused63>": 68,
      "<unused64>": 69,
      "<unused65>": 70,
      "<unused66>": 71,
      "<unused67>": 72,
      "<unused68>": 73,
      "<unused69>": 74,
      "<unused70>": 75,
      "<unused71>": 76,
      "<unused72>": 77,
      "<unused73>": 78,
      "<unused74>": 79,
      "<unused75>": 80,
      "<unused76>": 81,
      "<unused77>": 82,
      "<unused78>": 83,
      "<unused79>": 84,
      "<unused80>": 85,
      "<unused81>": 86,
      "<unused82>": 87,
      "<unused83>": 88,
      "<unused84>": 89,
      "<unused85>": 90,
      "<unused86>": 91,
      "<unused87>": 92,
      "<unused88>": 93,
      "<unused89>": 94,
      "<unused90>": 95,
      "<unused91>": 96,
      "<unused92>": 97,
      "<unused93>": 98,
      "<unused94>": 99,
      "<unused95>": 100,
      "<unused96>": 101,
      "<unused97>": 102,
      "<unused98>": 103,
      "<unused99>": 104,
      "!": 105,
      "\"": 106,
      "%": 107,
      "'": 108,
      ",": 109,
      "-": 110,
      ".": 111,
      "/": 112,
      "0": 113,
      "1": 114,
      "2": 115,
      "3": 116,
      "4": 117,
      "5": 118,
      "6": 119,
      "7": 120,
      "8": 121,
      "9": 122,
      ":": 123,
      "?": 124,
      "@": 125,
      "A": 126,
      "B": 127,
      "C": 128,
      "D": 129,
      "E": 130,
      "F": 131,
      "G": 132,
      "H": 133,
      "I": 134,
      "J": 135,
      "K": 136,
      "L": 137,
      "M": 138,
      "N": 139,
      "O": 140,
      "P": 141,
      "Q": 142,
      "R": 143,
      "S": 144,
      "T": 145,
      "U": 146,
      "V": 147,
      "W": 148,
      "X": 149,
      "Y": 150,
      "Z": 151,
      "a": 152,
      "b": 153,
      "c": 154,
      "d": 155,
      "e": 156,
      "f": 157,
      "g": 158,
      "h": 159,
      "i": 160,
      "j": 161,
      "k": 162,
      "l": 163,
      "m": 164,
      "n": 165,
      "o": 166,
      "p": 167,
      "q": 168,
      "r": 169,
      "s": 170,
      "t": 171,
      "u": 172,
      "v": 173,
      "w": 174,
      "x": 175,
      "y": 176,
      "z": 177,
      "~": 178,
      "·": 179,
      "ᄀ": 180,
      "ᄁ": 181,
      "ᄂ": 182,
      "ᄃ": 183,
      "ᄄ": 184,
      "ᄅ": 185,
      "ᄆ": 186,
      "ᄇ": 187,
      "ᄈ": 188,
      "ᄉ": 189,
      "ᄊ": 190,
      "ᄋ": 191,
      "ᄌ": 192,
      "ᄍ": 193,
      "ᄎ": 194,
      "ᄏ": 195,
      "ᄐ": 196,
      "ᄑ": 197,
      "ᄒ": 198,
      "ᅡ": 199,
      "ᅢ": 200,
      "ᅣ": 201,
      "ᅤ": 202,
      "ᅥ": 203,
      "ᅦ": 204,
      "ᅧ": 205,
      "ᅨ": 206,
      "ᅩ": 207,
      "ᅪ": 208,
      "ᅫ": 209,
      "ᅬ": 210,
      "ᅭ": 211,
      "ᅮ": 212,
      "ᅯ": 213,
      "ᅰ": 214,
      "ᅱ": 215,
      "ᅲ": 216,
      "ᅳ": 217,
      "ᅴ": 218,
      "ᅵ": 219,
      "ᆨ": 220,
      "ᆩ": 221,
      "ᆪ": 222,
      "ᆫ": 223,
      "ᆬ": 224,
      "ᆭ": 225,
      "ᆮ": 226,
      "ᆯ": 227,
      "ᆰ": 228,
      "ᆱ": 229,
      "ᆲ": 230,
      "ᆳ": 231,
      "ᆴ": 232,
      "ᆵ": 233,
      "ᆶ": 234,
      "ᆷ": 235,
      "ᆸ": 236,
      "ᆹ": 237,
      "ᆺ": 238,
      "ᆻ": 239,
      "ᆼ": 240,
      "ᆽ": 241,
      "ᆾ": 242,
      "ᆿ": 243,
      "ᇀ": 244,
      "ᇁ": 245,
      "ᇂ": 246,
      "％": 247,
      "##ᅦ": 248,
      "##ᄇ": 249,
      "##ᅡ": 250,
      "##ᄅ": 251,
      "##ᅮ": 252,
      "##ᄌ": 253,
      "##ᅥ": 254,
      "##ᆼ": 255,
      "##ᄉ": 256,
      "##ᅵ": 257,
      "##ᆫ": 258,
      "##ᄎ": 259,
      "##ᅧ": 260,
      "##ᄋ": 261,
      "##3": 262,
      "##9": 263,
      "##ᄆ": 264,
      "##0": 265,
      "##ᅴ": 266,
      "##ᅢ": 267,
      "##ᆷ": 268,
      "##ᄍ": 269,
      "##ᆨ": 270,
      "##ᄃ": 271,
      "##ᅳ": 272,
      "##ᆯ": 273,
      "##ᅩ": 274,
      "##ᅪ": 275,
      "##ᅣ": 276,
      "##ᄒ": 277,
      "##ᄐ": 278,
      "##ᆰ": 279,
      "##ᄀ": 280,
      "##ᄑ": 281,
      "##ᅬ": 282,
      "##ᆹ": 283,
      "##ᄂ": 284,
      "##ᄁ": 285,
      "##ᄈ": 286,
      "##2": 287,
      "##ᆸ": 288,
      "##ᆻ": 289,
      "##ᄄ": 290,
      "##ᅱ": 291,
      "##ᅯ": 292,
      "##ᆺ": 293,
      "##ᄏ": 294,
      "##ᅭ": 295,
      "##ᆿ": 296,
      "##ᄊ": 297,
      "##ᅫ": 298,
      "##ᅨ": 299,
      "##s": 300,
      "##ᅲ": 301,
      "##ᆮ": 302,
      "##G": 303,
      "##4": 304,
      "##o": 305,
      "##e": 306,
      "##t": 307,
      "##8": 308,
      "##ᆽ": 309,
      "##ᇀ": 310,
      "##ᇂ": 311,
      "##1": 312,
      "##E": 313,
      "##O": 314,
      "##x": 315,
      "##T": 316,
      "##V": 317,
      "##a": 318,
      "##r": 319,
      "##L": 320,
      "##c": 321,
      "##k": 322,
      "##W": 323,
      "##ᆶ": 324,
      "##7": 325,
      "##6": 326,
      "##5": 327,
      "##A": 328,
      "##B": 329,
      "##D": 330,
      "##I": 331,
      "##ᅰ": 332,
      "##ᆾ": 333,
      "##ᆭ": 334,
      "##h": 335,
      "##Y": 336,
      "##N": 337,
      "##C": 338,
      "##X": 339,
      "##R": 340,
      "##S": 341,
      "##ᇁ": 342,
      "##v": 343,
      "##p": 344,
      "##H": 345,
      "##ᆩ": 346,
      "##u": 347,
      "##n": 348,
      "##f": 349,
      "##i": 350,
      "##l": 351,
      "##d": 352,
      "##b": 353,
      "##y": 354,
      "##m": 355,
      "##z": 356,
      "##U": 357,
      "##P": 358,
      "##g": 359,
      "##ᅤ": 360,
      "##j": 361,
      "##F": 362,
      "##M": 363,
      "##ᆱ": 364,
      "##ᆴ": 365,
      "##w": 366,
      "##K": 367,
      "##ᆬ": 368,
      "##q": 369,
      "##ᆲ": 370,
      "##ᆪ": 371,
      "##ᆵ": 372,
      "##ᆳ": 373,
      "##Q": 374,
      "##J": 375,
      "##Z": 376,
      "##ᅳᆫ": 377,
      "##ᅳᆯ": 378,
      "##이": 379,
      "##ᅡᆫ": 380,
      "이": 381,
      "##다": 382,
      "##는": 383,
      "##ᅥᆫ": 384,
      "##ᅡᆼ": 385,
      "##지": 386,
      "##고": 387,
      "##가": 388,
      "##하": 389,
      "##ᅧᆫ": 390,
      "##에": 391,
      "##서": 392,
      "##ᅡᆯ": 393,
      "##로": 394,
      "##을": 395,
      "##도": 396,
      "##어": 397,
      "##ᅮᆫ": 398,
      "##리": 399,
      "##시": 400,
      "##ᅧᆼ": 401,
      "##라": 402,
      "##의": 403,
      "##해": 404,
      "##ᅥᆼ": 405,
      "##은": 406,
      "아": 407,
      "##기": 408,
      "##니": 409,
      "그": 410,
      "##ᅩᆼ": 411,
      "##한": 412,
      "가": 413,
      "지": 414,
      "##ᅮᆨ": 415,
      "##으": 416,
      "다": 417,
      "##들": 418,
      "하": 419,
      "##ᅮᆯ": 420,
      "##ᆻ다": 421,
      "##게": 422,
      "##나": 423,
      "##자": 424,
      "어": 425,
      "시": 426,
      "##아": 427,
      "##를": 428,
      "##인": 429,
      "거": 430,
      "사": 431,
      "##요": 432,
      "##ᅩᆨ": 433,
      "##면": 434,
      "##스": 435,
      "##ᅯᆫ": 436,
      "##ᅥᆨ": 437,
      "##거": 438,
      "나": 439,
      "##ᅩᆫ": 440,
      "대": 441,
      "기": 442,
      "자": 443,
      "한": 444,
      "있": 445,
      "해": 446,
      "##사": 447,
      "##러": 448,
      "##만": 449,
      "##려": 450,
      "##ᅳᆼ": 451,
      "##대": 452,
      "주": 453,
      "##과": 454,
      "##야": 455,
      "##주": 456,
      "##데": 457,
      "마": 458,
      "수": 459,
      "에": 460,
      "##ᅢᆼ": 461,
      "##화": 462,
      "##ᅵᆫ": 463,
      "보": 464,
      "##으로": 465,
      "##여": 466,
      "모": 467,
      "##장": 468,
      "바": 469,
      "조": 470,
      "##그": 471,
      "의": 472,
      "고": 473,
      "여": 474,
      "##정": 475,
      "##국": 476,
      "정": 477,
      "##부": 478,
      "는": 479,
      "##에서": 480,
      "것": 481,
      "##ᅥᆯ": 482,
      "##제": 483,
      "##보": 484,
      "을": 485,
      "##ᅥᆷ": 486,
      "일": 487,
      "전": 488,
      "##수": 489,
      "##상": 490,
      "##원": 491,
      "과": 492,
      "##되": 493,
      "되": 494,
      "##구": 495,
      "오": 496,
      "##ᅢᆨ": 497,
      "##치": 498,
      "인": 499,
      "##적": 500,
      "##드": 501,
      "##마": 502,
      "##와": 503,
      "도": 504,
      "##일": 505,
      "##하는": 506,
      "##까": 507,
      "##ᆸ니": 508,
      "##성": 509,
      "부": 510,
      "##르": 511,
      "##ᅧᆯ": 512,
      "##우": 513,
      "##네": 514,
      "미": 515,
      "안": 516,
      "##ᆸ니다": 517,
      "##신": 518,
      "은": 519,
      "없": 520,
      "내": 521,
      "화": 522,
      "##전": 523,
      "제": 524,
      "##래": 525,
      "##하고": 526,
      "우": 527,
      "##간": 528,
      "##ᅣᆼ": 529,
      "##동": 530,
      "중": 531,
      "##유": 532,
      "공": 533,
      "저": 534,
      "만": 535,
      "아니": 536,
      "##무": 537,
      "##ᆷ이": 538,
      "말": 539,
      "##회": 540,
      "차": 541,
      "##문": 542,
      "##히": 543,
      "경": 544,
      "유": 545,
      "##진": 546,
      "를": 547,
      "##트": 548,
      "비": 549,
      "국": 550,
      "무": 551,
      "위": 552,
      "##민": 553,
      "##미": 554,
      "##세": 555,
      "노": 556,
      "##용": 557,
      "개": 558,
      "##터": 559,
      "상": 560,
      "소": 561,
      "생": 562,
      "##당": 563,
      "##오": 564,
      "##들이": 565,
      "들": 566,
      "##년": 567,
      "##금": 568,
      "않": 569,
      "##업": 570,
      "##소": 571,
      "##내": 572,
      "##는데": 573,
      "##이다": 574,
      "##재": 575,
      "문": 576,
      "##바": 577,
      "##할": 578,
      "##ᅳ로": 579,
      "##ᅥᆸ": 580,
      "진": 581,
      "##조": 582,
      "##비": 583,
      "세": 584,
      "##음": 585,
      "##런": 586,
      "등": 587,
      "##선": 588,
      "때": 589,
      "##건": 590,
      "##각": 591,
      "##계": 592,
      "있다": 593,
      "##며": 594,
      "##람": 595,
      "##명": 596,
      "##지만": 597,
      "##워": 598,
      "와": 599,
      "영": 600,
      "##력": 601,
      "##겨": 602,
      "##체": 603,
      "했": 604,
      "더": 605,
      "##던": 606,
      "신": 607,
      "##생": 608,
      "구": 609,
      "##차": 610,
      "##식": 611,
      "##산": 612,
      "##안": 613,
      "##했다": 614,
      "##냐": 615,
      "##모": 616,
      "연": 617,
      "##분": 618,
      "선": 619,
      "##운": 620,
      "그러": 621,
      "##실": 622,
      "같": 623,
      "##위": 624,
      "##었": 625,
      "스": 626,
      "로": 627,
      "##행": 628,
      "##단": 629,
      "관": 630,
      "##ᅳᆨ": 631,
      "적": 632,
      "##타": 633,
      "할": 634,
      "서": 635,
      "##었다": 636,
      "##난": 637,
      "##것": 638,
      "성": 639,
      "##00": 640,
      "##통": 641,
      "##ᇂ게": 642,
      "##공": 643,
      "당": 644,
      "##개": 645,
      "요": 646,
      "##라고": 647,
      "못": 648,
      "동": 649,
      "##관": 650,
      "##레": 651,
      "원": 652,
      "있는": 653,
      "최": 654,
      "##ᆫ다": 655,
      "으로": 656,
      "남": 657,
      "알": 658,
      "피": 659,
      "##져": 660,
      "사람": 661,
      "##ᅳᆷ": 662,
      "##작": 663,
      "방": 664,
      "재": 665,
      "많": 666,
      "##학": 667,
      "너": 668,
      "게": 669,
      "##말": 670,
      "##하게": 671,
      "##른": 672,
      "##노": 673,
      "라": 674,
      "##영": 675,
      "##했": 676,
      "##ᆷ을": 677,
      "장": 678,
      "##연": 679,
      "##교": 680,
      "##중": 681,
      "##랑": 682,
      "##경": 683,
      "불": 684,
      "##테": 685,
      "##ᆯ리": 686,
      "발": 687,
      "##한다": 688,
      "잘": 689,
      "예": 690,
      "##에게": 691,
      "추": 692,
      "한다": 693,
      "에서": 694,
      "분": 695,
      "작": 696,
      "##본": 697,
      "##면서": 698,
      "##물": 699,
      "##디": 700,
      "현": 701,
      "생각": 702,
      "감": 703,
      "##든": 704,
      "##들은": 705,
      "반": 706,
      "우리": 707,
      "##번": 708,
      "실": 709,
      "##권": 710,
      "강": 711,
      "결": 712,
      "##속": 713,
      "##키": 714,
      "매": 715,
      "##발": 716,
      "좋": 717,
      "배": 718,
      "따": 719,
      "##직": 720,
      "##까지": 721,
      "##짜": 722,
      "##심": 723,
      "##혀": 724,
      "통": 725,
      "##때": 726,
      "받": 727,
      "##호": 728,
      "처": 729,
      "##두": 730,
      "또": 731,
      "##임": 732,
      "##버": 733,
      "##해서": 734,
      "드": 735,
      "##ᅵᆷ": 736,
      "##점": 737,
      "##준": 738,
      "김": 739,
      "그리": 740,
      "계": 741,
      "##ᅮᆷ": 742,
      "##역": 743,
      "##격": 744,
      "##방": 745,
      "##표": 746,
      "살": 747,
      "왜": 748,
      "##있": 749,
      "##님": 750,
      "##라는": 751,
      "##피": 752,
      "##처": 753,
      "##질": 754,
      "후": 755,
      "##파": 756,
      "##루": 757,
      "교": 758,
      "대한": 759,
      "##능": 760,
      "##반": 761,
      "##습니다": 762,
      "입": 763,
      "하는": 764,
      "##저": 765,
      "##월": 766,
      "역": 767,
      "단": 768,
      "20": 769,
      "야": 770,
      "##령": 771,
      "##법": 772,
      "회": 773,
      "##록": 774,
      "##후": 775,
      "두": 776,
      "물": 777,
      "##울": 778,
      "##더": 779,
      "뭐": 780,
      "건": 781,
      "##겠": 782,
      "##출": 783,
      "##양": 784,
      "달": 785,
      "##석": 786,
      "한국": 787,
      "##적인": 788,
      "##급": 789,
      "##녀": 790,
      "##없": 791,
      "##론": 792,
      "##부터": 793,
      "##란": 794,
      "특": 795,
      "명": 796,
      "애": 797,
      "집": 798,
      "국민": 799,
      "때문": 800,
      "##된": 801,
      "##하다": 802,
      "##태": 803,
      "타": 804,
      "##같": 805,
      "##크": 806,
      "##으면": 807,
      "영화": 808,
      "##티": 809,
      "민": 810,
      "##료": 811,
      "##매": 812,
      "박": 813,
      "##ᅦ이": 814,
      "확": 815,
      "##적으로": 816,
      "이런": 817,
      "##군": 818,
      "##천": 819,
      "##청": 820,
      "외": 821,
      "어ᄄ": 822,
      "면": 823,
      "참": 824,
      "포": 825,
      "올": 826,
      "치": 827,
      "##입": 828,
      "새": 829,
      "##는거": 830,
      "##날": 831,
      "##에는": 832,
      "##하지": 833,
      "##프": 834,
      "##근": 835,
      "진짜": 836,
      "##류": 837,
      "맞": 838,
      "본": 839,
      "##았": 840,
      "평": 841,
      "설": 842,
      "파": 843,
      "##럼": 844,
      "것이": 845,
      "학": 846,
      "누": 847,
      "##족": 848,
      "##대로": 849,
      "호": 850,
      "지금": 851,
      "##형": 852,
      "##종": 853,
      "니": 854,
      "죽": 855,
      "출": 856,
      "##보다": 857,
      "##토": 858,
      "##하면": 859,
      "일본": 860,
      "##설": 861,
      "그런": 862,
      "##망": 863,
      "초": 864,
      "지난": 865,
      "##감": 866,
      "행": 867,
      "느": 868,
      "근": 869,
      "##품": 870,
      "이러": 871,
      "코": 872,
      "투": 873,
      "##끼": 874,
      "며": 875,
      "##편": 876,
      "##련": 877,
      "##ᅯᆯ": 878,
      "돼": 879,
      "##들의": 880,
      "##포": 881,
      "##달": 882,
      "그래": 883,
      "앞": 884,
      "같은": 885,
      "쓰": 886,
      "##쳐": 887,
      "##술": 888,
      "언": 889,
      "문제": 890,
      "너무": 891,
      "##이나": 892,
      "##현": 893,
      "함": 894,
      "베": 895,
      "눈": 896,
      "##판": 897,
      "##찰": 898,
      "심": 899,
      "다른": 900,
      "손": 901,
      "뒤": 902,
      "##냥": 903,
      "직": 904,
      "청": 905,
      "자신": 906,
      "##린": 907,
      "##약": 908,
      "간": 909,
      "##험": 910,
      "얼": 911,
      "##께": 912,
      "##글": 913,
      "검": 914,
      "끄": 915,
      "중국": 916,
      "들어": 917,
      "##하기": 918,
      "10": 919,
      "하나": 920,
      "##배": 921,
      "##애": 922,
      "이제": 923,
      "점": 924,
      "버": 925,
      "##씨": 926,
      "##다고": 927,
      "까": 928,
      "##온": 929,
      "북": 930,
      "##습": 931,
      "##결": 932,
      "나라": 933,
      "양": 934,
      "##니까": 935,
      "돌": 936,
      "좀": 937,
      "##남": 938,
      "년": 939,
      "##봐": 940,
      "금": 941,
      "##복": 942,
      "##합": 943,
      "##름": 944,
      "##라도": 945,
      "된다": 946,
      "그리고": 947,
      "친": 948,
      "리": 949,
      "속": 950,
      "##승": 951,
      "운": 952,
      "##네요": 953,
      "##억": 954,
      "##통령": 955,
      "만들": 956,
      "##황": 957,
      "##ᅮᆼ": 958,
      "##았다": 959,
      "##등": 960,
      "위해": 961,
      "목": 962,
      "##듯": 963,
      "하고": 964,
      "##들을": 965,
      "##인데": 966,
      "법": 967,
      "종": 968,
      "아이": 969,
      "##함": 970,
      "##돼": 971,
      "##걸": 972,
      "##어서": 973,
      "미국": 974,
      "증": 975,
      "##하여": 976,
      "월": 977,
      "##머": 978,
      "##카": 979,
      "##집": 980,
      "판": 981,
      "경우": 982,
      "변": 983,
      "필": 984,
      "열": 985,
      "총": 986,
      "나오": 987,
      "##지는": 988,
      "넘": 989,
      "201": 990,
      "혀": 991,
      "머": 992,
      "##독": 993,
      "##코": 994,
      "이상": 995,
      "된": 996,
      "##량": 997,
      "데": 998,
      "##세요": 999,
      "##박": 1000,
      "정부": 1001,
      "##죠": 1002,
      "##먹": 1003,
      "그냥": 1004,
      "돈": 1005,
      "작가": 1006,
      "##길": 1007,
      "임": 1008,
      "표": 1009,
      "싶": 1010,
      "대통령": 1011,
      "##처럼": 1012,
      "##증": 1013,
      "문재": 1014,
      "##기를": 1015,
      "##향": 1016,
      "##베": 1017,
      "##절": 1018,
      "먹": 1019,
      "##느": 1020,
      "##목": 1021,
      "##어요": 1022,
      "것이다": 1023,
      "##송": 1024,
      "독": 1025,
      "##외": 1026,
      "19": 1027,
      "이번": 1028,
      "사실": 1029,
      "줄": 1030,
      "##너": 1031,
      "##강": 1032,
      "##즈": 1033,
      "산": 1034,
      "##책": 1035,
      "걸": 1036,
      "##였": 1037,
      "##리는": 1038,
      "카": 1039,
      "##다는": 1040,
      "##해야": 1041,
      "##친": 1042,
      "난": 1043,
      "##지고": 1044,
      "봐": 1045,
      "##육": 1046,
      "삼": 1047,
      "아닌": 1048,
      "##이고": 1049,
      "패": 1050,
      "##한테": 1051,
      "높": 1052,
      "다시": 1053,
      "##환": 1054,
      "될": 1055,
      "보고": 1056,
      "##병": 1057,
      "끝": 1058,
      "싸": 1059,
      "##줄": 1060,
      "##ᆯ이": 1061,
      "약": 1062,
      "##살": 1063,
      "사라": 1064,
      "##켜": 1065,
      "##락": 1066,
      "편": 1067,
      "##받": 1068,
      "메": 1069,
      "시작": 1070,
      "순": 1071,
      "막": 1072,
      "하지만": 1073,
      "##ᆺ이": 1074,
      "정도": 1075,
      "##셔": 1076,
      "형": 1077,
      "밝": 1078,
      "##희": 1079,
      "##립": 1080,
      "##럽": 1081,
      "활": 1082,
      "##에도": 1083,
      "각": 1084,
      "##예": 1085,
      "##언": 1086,
      "완": 1087,
      "따라": 1088,
      "##쟁": 1089,
      "##불": 1090,
      "없는": 1091,
      "때문에": 1092,
      "모르": 1093,
      "번": 1094,
      "많이": 1095,
      "##초": 1096,
      "겨": 1097,
      "함께": 1098,
      "꼬": 1099,
      "##막": 1100,
      "힘": 1101,
      "씨": 1102,
      "##규": 1103,
      "천": 1104,
      "날": 1105,
      "##별": 1106,
      "권": 1107,
      "##택": 1108,
      "채": 1109,
      "##악": 1110,
      "인간": 1111,
      "찾": 1112,
      "잡": 1113,
      "아무": 1114,
      "##투": 1115,
      "태": 1116,
      "가장": 1117,
      "##ᅥᆯ어": 1118,
      "정치": 1119,
      "군": 1120,
      "크": 1121,
      "엄": 1122,
      "어떠": 1123,
      "##된다": 1124,
      "##자가": 1125,
      "아니라": 1126,
      "##에서는": 1127,
      "서울": 1128,
      "시간": 1129,
      "었": 1130,
      "업": 1131,
      "##ᆯ라": 1132,
      "가능": 1133,
      "##늘": 1134,
      "체": 1135,
      "정말": 1136,
      "##기에": 1137,
      "절": 1138,
      "##리를": 1139,
      "사회": 1140,
      "토": 1141,
      "##이라": 1142,
      "##나라": 1143,
      "##슨": 1144,
      "허": 1145,
      "빨": 1146,
      "##기가": 1147,
      "광": 1148,
      "##되는": 1149,
      "##긴": 1150,
      "경제": 1151,
      "환": 1152,
      "모두": 1153,
      "필요": 1154,
      "##앙": 1155,
      "##리가": 1156,
      "음": 1157,
      "라고": 1158,
      "했다": 1159,
      "큰": 1160,
      "##색": 1161,
      "통해": 1162,
      "백": 1163,
      "##인이": 1164,
      "##기도": 1165,
      "##주의": 1166,
      "별": 1167,
      "준": 1168,
      "취": 1169,
      "빠": 1170,
      "##ᆺ글": 1171,
      "##같은": 1172,
      "온": 1173,
      "북한": 1174,
      "볼": 1175,
      "존": 1176,
      "세계": 1177,
      "기업": 1178,
      "상황": 1179,
      "##려고": 1180,
      "좋아": 1181,
      "##ᆻ는데": 1182,
      "##놓": 1183,
      "이후": 1184,
      "다고": 1185,
      "##겠다": 1186,
      "이렇게": 1187,
      "캐": 1188,
      "##활": 1189,
      "##션": 1190,
      "##이는": 1191,
      "##순": 1192,
      "##북": 1193,
      "200": 1194,
      "##빠": 1195,
      "민주": 1196,
      "충": 1197,
      "##못": 1198,
      "모습": 1199,
      "##새": 1200,
      "##벌": 1201,
      "규": 1202,
      "##으며": 1203,
      "것은": 1204,
      "모든": 1205,
      "##익": 1206,
      "##입니다": 1207,
      "복": 1208,
      "##째": 1209,
      "재미": 1210,
      "##리고": 1211,
      "##아가": 1212,
      "어떻게": 1213,
      "##견": 1214,
      "##였다": 1215,
      "없다": 1216,
      "내가": 1217,
      "커": 1218,
      "##득": 1219,
      "지역": 1220,
      "##어나": 1221,
      "##변": 1222,
      "여자": 1223,
      "떠": 1224,
      "이유": 1225,
      "책": 1226,
      "##추": 1227,
      "##기는": 1228,
      "##담": 1229,
      "##합니다": 1230,
      "##이가": 1231,
      "다음": 1232,
      "웨": 1233,
      "좌": 1234,
      "대표": 1235,
      "##구나": 1236,
      "합": 1237,
      "담": 1238,
      "##는다": 1239,
      "귀": 1240,
      "##다가": 1241,
      "사용": 1242,
      "던": 1243,
      "욕": 1244,
      "##극": 1245,
      "##창": 1246,
      "많은": 1247,
      "##브": 1248,
      "##스트": 1249,
      "식": 1250,
      "댓글": 1251,
      "키": 1252,
      "밝혀": 1253,
      "국가": 1254,
      "이야": 1255,
      "폭": 1256,
      "시장": 1257,
      "사람이": 1258,
      "병": 1259,
      "용": 1260,
      "##죄": 1261,
      "쉬": 1262,
      "이미": 1263,
      "그러나": 1264,
      "##졌": 1265,
      "늘": 1266,
      "##케": 1267,
      "그렇게": 1268,
      "승": 1269,
      "악": 1270,
      "글": 1271,
      "##ᆭ아": 1272,
      "자기": 1273,
      "있었": 1274,
      "됐": 1275,
      "네": 1276,
      "##지도": 1277,
      "해야": 1278,
      "디": 1279,
      "##굴": 1280,
      "##접": 1281,
      "정신": 1282,
      "##획": 1283,
      "갈": 1284,
      "찌": 1285,
      "아직": 1286,
      "까지": 1287,
      "사업": 1288,
      "몇": 1289,
      "##자는": 1290,
      "논": 1291,
      "##이라고": 1292,
      "대해": 1293,
      "어떤": 1294,
      "및": 1295,
      "협": 1296,
      "##범": 1297,
      "##패": 1298,
      "##툰": 1299,
      "##플": 1300,
      "것으로": 1301,
      "관련": 1302,
      "관계": 1303,
      "계속": 1304,
      "##거나": 1305,
      "사랑": 1306,
      "얼마": 1307,
      "창": 1308,
      "것을": 1309,
      "히": 1310,
      "현재": 1311,
      "항": 1312,
      "##어야": 1313,
      "무슨": 1314,
      "##항": 1315,
      "##사를": 1316,
      "트": 1317,
      "##하며": 1318,
      "질": 1319,
      "##엔": 1320,
      "##례": 1321,
      "억": 1322,
      "##아서": 1323,
      "##열": 1324,
      "웃": 1325,
      "##존": 1326,
      "어려": 1327,
      "근데": 1328,
      "##혜": 1329,
      "프로": 1330,
      "##인가": 1331,
      "문재인": 1332,
      "사이": 1333,
      "바ᄁ": 1334,
      "##율": 1335,
      "있을": 1336,
      "나와": 1337,
      "##ᆸ툰": 1338,
      "테": 1339,
      "##들에게": 1340,
      "##큼": 1341,
      "뭔": 1342,
      "##보고": 1343,
      "좋은": 1344,
      "##지를": 1345,
      "##으니": 1346,
      "처음": 1347,
      "갖": 1348,
      "역시": 1349,
      "##ᆺ을": 1350,
      "위한": 1351,
      "벌": 1352,
      "##쪽": 1353,
      "보면": 1354,
      "##가는": 1355,
      "##성이": 1356,
      "내용": 1357,
      "마음": 1358,
      "이해": 1359,
      "##광": 1360,
      "보여": 1361,
      "12": 1362,
      "##축": 1363,
      "##잡": 1364,
      "##혼": 1365,
      "얘": 1366,
      "##객": 1367,
      "프": 1368,
      "##하면서": 1369,
      "특히": 1370,
      "있었다": 1371,
      "극": 1372,
      "##민국": 1373,
      "##시키": 1374,
      "##커": 1375,
      "바로": 1376,
      "##릴": 1377,
      "지원": 1378,
      "이어": 1379,
      "라는": 1380,
      "##따": 1381,
      "여러": 1382,
      "여기": 1383,
      "##이지": 1384,
      "레": 1385,
      "어디": 1386,
      "철": 1387,
      "조국": 1388,
      "##ᆸ게": 1389,
      "투자": 1390,
      "망": 1391,
      "##메": 1392,
      "하지": 1393,
      "##들도": 1394,
      "11": 1395,
      "##ᆼ이": 1396,
      "작가님": 1397,
      "##레이": 1398,
      "그래서": 1399,
      "##ᆩ에": 1400,
      "첫": 1401,
      "30": 1402,
      "황": 1403,
      "##줘": 1404,
      "##백": 1405,
      "##탄": 1406,
      "##놈": 1407,
      "##댓": 1408,
      "뜨": 1409,
      "##찌": 1410,
      "##림": 1411,
      "짜": 1412,
      "##는게": 1413,
      "100": 1414,
      "남자": 1415,
      "대한민국": 1416,
      "진행": 1417,
      "##사람": 1418,
      "길": 1419,
      "새로": 1420,
      "##잖아": 1421,
      "##갈": 1422,
      "홍": 1423,
      "몰": 1424,
      "##것도": 1425,
      "결국": 1426,
      "##움": 1427,
      "##될": 1428,
      "##ᆫ드": 1429,
      "기대": 1430,
      "오늘": 1431,
      "##철": 1432,
      "국내": 1433,
      "수준": 1434,
      "이용": 1435,
      "##인지": 1436,
      "먼": 1437,
      "##렸": 1438,
      "기사": 1439,
      "##찬": 1440,
      "보다": 1441,
      "##있는": 1442,
      "##짓": 1443,
      "방송": 1444,
      "##졌다": 1445,
      "##평": 1446,
      "##주는": 1447,
      "##력을": 1448,
      "그렇": 1449,
      "범": 1450,
      "다는": 1451,
      "##써": 1452,
      "중요": 1453,
      "##좀": 1454,
      "여성": 1455,
      "검찰": 1456,
      "##착": 1457,
      "##지막": 1458,
      "결과": 1459,
      "둘": 1460,
      "##쓰": 1461,
      "##도록": 1462,
      "##이라는": 1463,
      "나는": 1464,
      "교육": 1465,
      "##지가": 1466,
      "##페": 1467,
      "급": 1468,
      "##퍼": 1469,
      "싫": 1470,
      "올라": 1471,
      "##츠": 1472,
      "접": 1473,
      "저런": 1474,
      "최고": 1475,
      "##꺼": 1476,
      "혼": 1477,
      "듯": 1478,
      "##없이": 1479,
      "윤": 1480,
      "또한": 1481,
      "보내": 1482,
      "##응": 1483,
      "마지막": 1484,
      "##채": 1485,
      "잠": 1486,
      "곳": 1487,
      "최근": 1488,
      "떨어": 1489,
      "##는지": 1490,
      "##장이": 1491,
      "같이": 1492,
      "효": 1493,
      "피해": 1494,
      "##푸": 1495,
      "##ᆷ에": 1496,
      "희": 1497,
      "##ᆸ다": 1498,
      "웹툰": 1499,
      "믿": 1500,
      "##사가": 1501,
      "15": 1502,
      "자유": 1503,
      "헤": 1504,
      "탄": 1505,
      "뿐": 1506,
      "휴": 1507,
      "으": 1508,
      "았": 1509,
      "팔": 1510,
      "##장을": 1511,
      "친구": 1512,
      "##소리": 1513,
      "##ᆯ린": 1514,
      "이거": 1515,
      "에게": 1516,
      "##욱": 1517,
      "당신": 1518,
      "어느": 1519,
      "조사": 1520,
      "놓": 1521,
      "향": 1522,
      "##성을": 1523,
      "기술": 1524,
      "##끄": 1525,
      "##어도": 1526,
      "민주당": 1527,
      "##액": 1528,
      "##해라": 1529,
      "지난해": 1530,
      "부터": 1531,
      "##ᆯ로": 1532,
      "##되고": 1533,
      "##머니": 1534,
      "브": 1535,
      "##누": 1536,
      "국회": 1537,
      "##총": 1538,
      "깨": 1539,
      "##혁": 1540,
      "기록": 1541,
      "세상": 1542,
      "나타": 1543,
      "경찰": 1544,
      "지만": 1545,
      "##봉": 1546,
      "느끼": 1547,
      "감독": 1548,
      "언제": 1549,
      "농": 1550,
      "##레기": 1551,
      "지지": 1552,
      "없이": 1553,
      "가족": 1554,
      "왕": 1555,
      "대학": 1556,
      "얼굴": 1557,
      "되는": 1558,
      "그는": 1559,
      "당시": 1560,
      "##원이": 1561,
      "##꼬": 1562,
      "울": 1563,
      "경기": 1564,
      "자신의": 1565,
      "느ᄁ": 1566,
      "계획": 1567,
      "##력이": 1568,
      "학교": 1569,
      "쳐": 1570,
      "물론": 1571,
      "알고": 1572,
      "축": 1573,
      "설명": 1574,
      "##ᆻ다고": 1575,
      "##에서도": 1576,
      "##충": 1577,
      "##정을": 1578,
      "사진": 1579,
      "면서": 1580,
      "##들아": 1581,
      "##융": 1582,
      "능": 1583,
      "터": 1584,
      "얼마나": 1585,
      "그럼": 1586,
      "올해": 1587,
      "사건": 1588,
      "연구": 1589,
      "정권": 1590,
      "만들어": 1591,
      "##가지": 1592,
      "##벼": 1593,
      "플": 1594,
      "잘못": 1595,
      "##아니": 1596,
      "똑": 1597,
      "배우": 1598,
      "##거리": 1599,
      "죄": 1600,
      "나온": 1601,
      "주인": 1602,
      "삼성": 1603,
      "##인다": 1604,
      "현실": 1605,
      "##침": 1606,
      "##랴": 1607,
      "이게": 1608,
      "##ᆻ을": 1609,
      "이날": 1610,
      "##들과": 1611,
      "제대로": 1612,
      "만나": 1613,
      "##귀": 1614,
      "##싶": 1615,
      "받아": 1616,
      "##했던": 1617,
      "말이": 1618,
      "아주": 1619,
      "응": 1620,
      "##화를": 1621,
      "##동안": 1622,
      "의미": 1623,
      "##더니": 1624,
      "하면": 1625,
      "흐": 1626,
      "그것": 1627,
      "##수가": 1628,
      "않고": 1629,
      "골": 1630,
      "##릭": 1631,
      "##즘": 1632,
      "한번": 1633,
      "##시간": 1634,
      "개발": 1635,
      "##하는데": 1636,
      "빼": 1637,
      "##부분": 1638,
      "알려": 1639,
      "풀": 1640,
      "전문": 1641,
      "개인": 1642,
      "##층": 1643,
      "##ᆸ니까": 1644,
      "##협": 1645,
      "학생": 1646,
      "수도": 1647,
      "돌아": 1648,
      "##으나": 1649,
      "올리": 1650,
      "##비스": 1651,
      "##중에": 1652,
      "##폭": 1653,
      "대상": 1654,
      "##되어": 1655,
      "##ᆻ던": 1656,
      "클": 1657,
      "18": 1658,
      "조선": 1659,
      "않는": 1660,
      "자리": 1661,
      "우리나라": 1662,
      "회사": 1663,
      "##뜨": 1664,
      "##해도": 1665,
      "써": 1666,
      "있는데": 1667,
      "그만": 1668,
      "실제": 1669,
      "##탈": 1670,
      "후보": 1671,
      "탈": 1672,
      "##징": 1673,
      "##않": 1674,
      "얻": 1675,
      "##십": 1676,
      "그런데": 1677,
      "오래": 1678,
      "##진다": 1679,
      "##정이": 1680,
      "자체": 1681,
      "동안": 1682,
      "부분": 1683,
      "상대": 1684,
      "##그래": 1685,
      "##장은": 1686,
      "스토": 1687,
      "꼭": 1688,
      "따르": 1689,
      "공개": 1690,
      "##시아": 1691,
      "일반": 1692,
      "##팅": 1693,
      "##놓고": 1694,
      "##렸다": 1695,
      "페": 1696,
      "##정도": 1697,
      "의원": 1698,
      "##곳": 1699,
      "##략": 1700,
      "##없는": 1701,
      "존재": 1702,
      "가지": 1703,
      "##쉬": 1704,
      "##폐": 1705,
      "##텐": 1706,
      "##주고": 1707,
      "##로나": 1708,
      "이야기": 1709,
      "지나": 1710,
      "직접": 1711,
      "##0년": 1712,
      "##깨": 1713,
      "##왕": 1714,
      "측": 1715,
      "살아": 1716,
      "##기업": 1717,
      "괴": 1718,
      "##운데": 1719,
      "해서": 1720,
      "##하나": 1721,
      "##킨": 1722,
      "누가": 1723,
      "##훈": 1724,
      "정보": 1725,
      "낮": 1726,
      "않은": 1727,
      "##이었다": 1728,
      "평가": 1729,
      "##겠지": 1730,
      "베댓": 1731,
      "저러": 1732,
      "뉴": 1733,
      "머리": 1734,
      "완전": 1735,
      "##염": 1736,
      "##념": 1737,
      "상태": 1738,
      "##전에": 1739,
      "말했다": 1740,
      "그녀": 1741,
      "##꾸": 1742,
      "##하네": 1743,
      "정책": 1744,
      "##치는": 1745,
      "다양": 1746,
      "##시켜": 1747,
      "끌": 1748,
      "##싸": 1749,
      "먼저": 1750,
      "##알": 1751,
      "##스로": 1752,
      "##시는": 1753,
      "일부": 1754,
      "활동": 1755,
      "##이랑": 1756,
      "선거": 1757,
      "소리": 1758,
      "합니다": 1759,
      "언론": 1760,
      "##마다": 1761,
      "핵": 1762,
      "새로운": 1763,
      "갑": 1764,
      "##보면": 1765,
      "것도": 1766,
      "##손": 1767,
      "하루": 1768,
      "솔": 1769,
      "뽀": 1770,
      "제발": 1771,
      "##하는거": 1772,
      "대구": 1773,
      "공격": 1774,
      "티": 1775,
      "예정": 1776,
      "운영": 1777,
      "있고": 1778,
      "어ᄍ": 1779,
      "##덕": 1780,
      "##먼": 1781,
      "##검": 1782,
      "##즌": 1783,
      "##돌": 1784,
      "사람들이": 1785,
      "가지고": 1786,
      "쪽": 1787,
      "##블": 1788,
      "##라이": 1789,
      "좋게": 1790,
      "##한거": 1791,
      "##탁": 1792,
      "누구": 1793,
      "##사는": 1794,
      "보이": 1795,
      "폐": 1796,
      "##스크": 1797,
      "부모": 1798,
      "##드는": 1799,
      "##어가": 1800,
      "##ᅢᆼ이": 1801,
      "##슬": 1802,
      "##었던": 1803,
      "뛰": 1804,
      "찍": 1805,
      "금융": 1806,
      "궁": 1807,
      "##씩": 1808,
      "코로나": 1809,
      "붙": 1810,
      "팀": 1811,
      "방법": 1812,
      "몸": 1813,
      "##곡": 1814,
      "##다니": 1815,
      "##빨": 1816,
      "##님이": 1817,
      "##셨": 1818,
      "아니고": 1819,
      "##말고": 1820,
      "##대가": 1821,
      "전체": 1822,
      "기준": 1823,
      "##확": 1824,
      "있다는": 1825,
      "##었는데": 1826,
      "무어": 1827,
      "조금": 1828,
      "엄마": 1829,
      "결정": 1830,
      "현대": 1831,
      "해도": 1832,
      "밀": 1833,
      "등장": 1834,
      "##상을": 1835,
      "##볼": 1836,
      "##자를": 1837,
      "있어": 1838,
      "성공": 1839,
      "인터": 1840,
      "문화": 1841,
      "##기로": 1842,
      "힘들": 1843,
      "##균": 1844,
      "##정부": 1845,
      "##뿐": 1846,
      "##센": 1847,
      "##밖에": 1848,
      "나서": 1849,
      "꾸": 1850,
      "준비": 1851,
      "확인": 1852,
      "퍼": 1853,
      "##학교": 1854,
      "한편": 1855,
      "발생": 1856,
      "주인공": 1857,
      "미래": 1858,
      "않았": 1859,
      "삶": 1860,
      "블": 1861,
      "##룹": 1862,
      "보는": 1863,
      "세금": 1864,
      "즉": 1865,
      "나가": 1866,
      "이르": 1867,
      "있습니다": 1868,
      "##하자": 1869,
      "사고": 1870,
      "##자의": 1871,
      "만화": 1872,
      "찾아": 1873,
      "답": 1874,
      "딸": 1875,
      "50": 1876,
      "선수": 1877,
      "##러운": 1878,
      "인정": 1879,
      "##웨": 1880,
      "착": 1881,
      "이름": 1882,
      "##욕": 1883,
      "맡": 1884,
      "발표": 1885,
      "듣": 1886,
      "기억": 1887,
      "대부분": 1888,
      "서로": 1889,
      "기다": 1890,
      "##폰": 1891,
      "##척": 1892,
      "##됐다": 1893,
      "내려": 1894,
      "##ᆺ한": 1895,
      "읽": 1896,
      "##이야": 1897,
      "암": 1898,
      "제공": 1899,
      "바라": 1900,
      "말을": 1901,
      "##틀": 1902,
      "침": 1903,
      "그림": 1904,
      "놈": 1905,
      "그의": 1906,
      "##음이": 1907,
      "13": 1908,
      "외국": 1909,
      "기자": 1910,
      "안되": 1911,
      "##스테": 1912,
      "거의": 1913,
      "요즘": 1914,
      "##OO": 1915,
      "아닌가": 1916,
      "겠": 1917,
      "가운데": 1918,
      "얘기": 1919,
      "참여": 1920,
      "만든": 1921,
      "들어가": 1922,
      "그래도": 1923,
      "가격": 1924,
      "##숙": 1925,
      "작품": 1926,
      "##딩": 1927,
      "##000": 1928,
      "##ᆻ고": 1929,
      "이것": 1930,
      "위해서": 1931,
      "행동": 1932,
      "이건": 1933,
      "16": 1934,
      "##문에": 1935,
      "##측": 1936,
      "##정은": 1937,
      "##칠": 1938,
      "과거": 1939,
      "25": 1940,
      "당연": 1941,
      "##적이": 1942,
      "슬": 1943,
      "##치고": 1944,
      "##밀": 1945,
      "최대": 1946,
      "##시다": 1947,
      "표현": 1948,
      "한다고": 1949,
      "##려는": 1950,
      "더욱": 1951,
      "##나요": 1952,
      "서비스": 1953,
      "아니다": 1954,
      "##시고": 1955,
      "위원": 1956,
      "어린": 1957,
      "수사": 1958,
      "##식을": 1959,
      "엄청": 1960,
      "혹": 1961,
      "##취": 1962,
      "아버": 1963,
      "역사": 1964,
      "판매": 1965,
      "앞으로": 1966,
      "선택": 1967,
      "같다": 1968,
      "##률": 1969,
      "증가": 1970,
      "즐": 1971,
      "##쁜": 1972,
      "##답": 1973,
      "관리": 1974,
      "때문이다": 1975,
      "정상": 1976,
      "##널": 1977,
      "틀": 1978,
      "쓰레기": 1979,
      "없어": 1980,
      "##을까": 1981,
      "육": 1982,
      "있다고": 1983,
      "##같이": 1984,
      "숨": 1985,
      "전국": 1986,
      "스타": 1987,
      "긴": 1988,
      "알아": 1989,
      "##근혜": 1990,
      "엔": 1991,
      "성장": 1992,
      "14": 1993,
      "효과": 1994,
      "##닥": 1995,
      "##효": 1996,
      "뽑": 1997,
      "드러": 1998,
      "다니": 1999,
      "해외": 2000,
      "송": 2001,
      "주장": 2002,
      "생활": 2003,
      "##심이": 2004,
      "생산": 2005,
      "##의원": 2006,
      "경쟁": 2007,
      "예상": 2008,
      "##이트": 2009,
      "빨리": 2010,
      "##주세요": 2011,
      "게임": 2012,
      "딱": 2013,
      "##명이": 2014,
      "##한다고": 2015,
      "##ᆨ스": 2016,
      "국제": 2017,
      "##야지": 2018,
      "규모": 2019,
      "##죽": 2020,
      "해결": 2021,
      "추가": 2022,
      "문재앙": 2023,
      "운동": 2024,
      "결혼": 2025,
      "##만원": 2026,
      "시민": 2027,
      "영향": 2028,
      "##랜드": 2029,
      "넣": 2030,
      "만큼": 2031,
      "##했는데": 2032,
      "일이": 2033,
      "압": 2034,
      "봉": 2035,
      "말고": 2036,
      "잔": 2037,
      "장면": 2038,
      "##리아": 2039,
      "반대": 2040,
      "팬": 2041,
      "##릭터": 2042,
      "##벽": 2043,
      "##스럽": 2044,
      "##는건": 2045,
      "##한당": 2046,
      "대해서": 2047,
      "##옥": 2048,
      "루": 2049,
      "##랄": 2050,
      "##라면": 2051,
      "##힌": 2052,
      "##넘": 2053,
      "격": 2054,
      "비스": 2055,
      "무서": 2056,
      "않았다": 2057,
      "산업": 2058,
      "##하던": 2059,
      "17": 2060,
      "##혹": 2061,
      "보인다": 2062,
      "##팔": 2063,
      "괘": 2064,
      "좌파": 2065,
      "##ᆻ습니다": 2066,
      "못한": 2067,
      "##웃": 2068,
      "##라마": 2069,
      "포함": 2070,
      "우리가": 2071,
      "##되었다": 2072,
      "나타나": 2073,
      "##린다": 2074,
      "##스터": 2075,
      "##인의": 2076,
      "##괴": 2077,
      "장관": 2078,
      "##쁘": 2079,
      "기본": 2080,
      "##수를": 2081,
      "사람들": 2082,
      "청와": 2083,
      "감사": 2084,
      "노동": 2085,
      "다르": 2086,
      "##하냐": 2087,
      "나도": 2088,
      "##맞": 2089,
      "##퇴": 2090,
      "##음을": 2091,
      "러": 2092,
      "등을": 2093,
      "요구": 2094,
      "##식이": 2095,
      "##도가": 2096,
      "전쟁": 2097,
      "역할": 2098,
      "##아요": 2099,
      "##스를": 2100,
      "##ᆷ의": 2101,
      "##하지만": 2102,
      "정의": 2103,
      "과정": 2104,
      "꺼": 2105,
      "환경": 2106,
      "풍": 2107,
      "박근혜": 2108,
      "##올": 2109,
      "시대": 2110,
      "공부": 2111,
      "되어": 2112,
      "자한당": 2113,
      "한다는": 2114,
      "사람은": 2115,
      "##뉴": 2116,
      "##춰": 2117,
      "바뀌": 2118,
      "##짝": 2119,
      "쪼": 2120,
      "솔직": 2121,
      "유지": 2122,
      "놀": 2123,
      "똥": 2124,
      "캐릭터": 2125,
      "##히려": 2126,
      "##턴": 2127,
      "끼": 2128,
      "절대": 2129,
      "괜": 2130,
      "자연": 2131,
      "뭘": 2132,
      "##돈": 2133,
      "##도를": 2134,
      "##스가": 2135,
      "쇼": 2136,
      "##이면": 2137,
      "##좋": 2138,
      "##핵": 2139,
      "그게": 2140,
      "##맨": 2141,
      "흔": 2142,
      "##리지": 2143,
      "그때": 2144,
      "교수": 2145,
      "##있다": 2146,
      "건강": 2147,
      "시즌": 2148,
      "추진": 2149,
      "시키": 2150,
      "부산": 2151,
      "상당": 2152,
      "오히려": 2153,
      "오후": 2154,
      "도시": 2155,
      "비교": 2156,
      "쿠": 2157,
      "입장": 2158,
      "##었고": 2159,
      "##참": 2160,
      "밝혔": 2161,
      "술": 2162,
      "걱": 2163,
      "이를": 2164,
      "류": 2165,
      "##많": 2166,
      "매우": 2167,
      "경험": 2168,
      "##위원": 2169,
      "자동": 2170,
      "##휴": 2171,
      "##이네": 2172,
      "지방": 2173,
      "되었다": 2174,
      "##영화": 2175,
      "네이": 2176,
      "쓸": 2177,
      "##인은": 2178,
      "마련": 2179,
      "##들어": 2180,
      "덕": 2181,
      "40": 2182,
      "쏘": 2183,
      "책임": 2184,
      "가까": 2185,
      "스스로": 2186,
      "아직도": 2187,
      "##다면": 2188,
      "##했고": 2189,
      "##어난": 2190,
      "그대로": 2191,
      "해당": 2192,
      "##탕": 2193,
      "소비": 2194,
      "원래": 2195,
      "##서는": 2196,
      "##원을": 2197,
      "인물": 2198,
      "##심을": 2199,
      "없고": 2200,
      "이나": 2201,
      "전망": 2202,
      "##ᆷ이다": 2203,
      "범죄": 2204,
      "##치를": 2205,
      "##자리": 2206,
      "연기": 2207,
      "노력": 2208,
      "##필": 2209,
      "##풍": 2210,
      "판단": 2211,
      "구성": 2212,
      "순간": 2213,
      "다만": 2214,
      "##클": 2215,
      "분석": 2216,
      "짓": 2217,
      "아파": 2218,
      "빨ᄀ": 2219,
      "발전": 2220,
      "제가": 2221,
      "##보는": 2222,
      "청와대": 2223,
      "##텐데": 2224,
      "##에요": 2225,
      "##골": 2226,
      "OOO": 2227,
      "재밌": 2228,
      "끝나": 2229,
      "##쿠": 2230,
      "석": 2231,
      "##르는": 2232,
      "주변": 2233,
      "##붙": 2234,
      "##점을": 2235,
      "가스": 2236,
      "##허": 2237,
      "중심": 2238,
      "대신": 2239,
      "상승": 2240,
      "하는데": 2241,
      "##시에": 2242,
      "##깐": 2243,
      "곧": 2244,
      "인생": 2245,
      "기회": 2246,
      "##자기": 2247,
      "##일이": 2248,
      "아무리": 2249,
      "대비": 2250,
      "제품": 2251,
      "##금이": 2252,
      "보수": 2253,
      "##인을": 2254,
      "분명": 2255,
      "이루": 2256,
      "워": 2257,
      "맨": 2258,
      "행복": 2259,
      "저렇게": 2260,
      "비판": 2261,
      "기존": 2262,
      "제작": 2263,
      "밝혔다": 2264,
      "않는다": 2265,
      "##위를": 2266,
      "이에": 2267,
      "제일": 2268,
      "경영": 2269,
      "##더라": 2270,
      "##므로": 2271,
      "슈": 2272,
      "흥": 2273,
      "칼": 2274,
      "움": 2275,
      "되고": 2276,
      "##보니": 2277,
      "밥": 2278,
      "고객": 2279,
      "관심": 2280,
      "##튼": 2281,
      "바이": 2282,
      "지켜": 2283,
      "업체": 2284,
      "##으면서": 2285,
      "##ᆷ피": 2286,
      "미친": 2287,
      "거짓": 2288,
      "찬": 2289,
      "색": 2290,
      "이ᄅ": 2291,
      "스토리": 2292,
      "프로그래": 2293,
      "거래": 2294,
      "같은데": 2295,
      "혼자": 2296,
      "특별": 2297,
      "##씬": 2298,
      "##상이": 2299,
      "##스는": 2300,
      "옆": 2301,
      "##한다는": 2302,
      "항상": 2303,
      "##자로": 2304,
      "##자들": 2305,
      "비로": 2306,
      "##에선": 2307,
      "뇌": 2308,
      "모습을": 2309,
      "##했다고": 2310,
      "##스타": 2311,
      "위험": 2312,
      "휘": 2313,
      "전혀": 2314,
      "생각이": 2315,
      "능력": 2316,
      "안전": 2317,
      "전부": 2318,
      "##칙": 2319,
      "##번째": 2320,
      "##넷": 2321,
      "견": 2322,
      "21": 2323,
      "젊": 2324,
      "##하시": 2325,
      "##정권": 2326,
      "##하니": 2327,
      "##거지": 2328,
      "##건가": 2329,
      "뭔가": 2330,
      "치료": 2331,
      "부족": 2332,
      "##디어": 2333,
      "퇴": 2334,
      "확대": 2335,
      "##값": 2336,
      "기간": 2337,
      "##캐": 2338,
      "벗": 2339,
      "구조": 2340,
      "밤": 2341,
      "없었다": 2342,
      "##얼": 2343,
      "느껴": 2344,
      "네이버": 2345,
      "##지에": 2346,
      "##ᆻ다는": 2347,
      "앉": 2348,
      "출연": 2349,
      "##르고": 2350,
      "강화": 2351,
      "##슈": 2352,
      "##명을": 2353,
      "돌아가": 2354,
      "일단": 2355,
      "24": 2356,
      "##수록": 2357,
      "활용": 2358,
      "묻": 2359,
      "무엇": 2360,
      "은행": 2361,
      "##지않": 2362,
      "##이냐": 2363,
      "##자들이": 2364,
      "조직": 2365,
      "아니면": 2366,
      "##오는": 2367,
      "솔직히": 2368,
      "홈": 2369,
      "지적": 2370,
      "##정한": 2371,
      "인사": 2372,
      "밖에": 2373,
      "잃": 2374,
      "##되면": 2375,
      "노래": 2376,
      "높은": 2377,
      "뜻": 2378,
      "##최": 2379,
      "아마": 2380,
      "확실": 2381,
      "떠나": 2382,
      "이러한": 2383,
      "변화": 2384,
      "분위": 2385,
      "집중": 2386,
      "##기고": 2387,
      "멀": 2388,
      "나오는": 2389,
      "궁금": 2390,
      "공동": 2391,
      "가진": 2392,
      "##춘": 2393,
      "##이니": 2394,
      "중요한": 2395,
      "나이": 2396,
      "센": 2397,
      "마스크": 2398,
      "크게": 2399,
      "##은행": 2400,
      "징": 2401,
      "대체": 2402,
      "##해주": 2403,
      "##려면": 2404,
      "##ᆻ네": 2405,
      "충분": 2406,
      "내년": 2407,
      "기관": 2408,
      "##빈": 2409,
      "있던": 2410,
      "일을": 2411,
      "받고": 2412,
      "##찮": 2413,
      "니가": 2414,
      "##겠지만": 2415,
      "공산": 2416,
      "문제가": 2417,
      "액": 2418,
      "멋": 2419,
      "##마트": 2420,
      "강조": 2421,
      "적용": 2422,
      "##ᆯ까": 2423,
      "보니": 2424,
      "신천": 2425,
      "##로는": 2426,
      "줘": 2427,
      "##핑": 2428,
      "##BS": 2429,
      "##지마": 2430,
      "##라인": 2431,
      "##낸": 2432,
      "##가서": 2433,
      "##때문에": 2434,
      "있지만": 2435,
      "##압": 2436,
      "달리": 2437,
      "기분": 2438,
      "깊": 2439,
      "땅": 2440,
      "##구만": 2441,
      "몰라": 2442,
      "##한데": 2443,
      "199": 2444,
      "##제를": 2445,
      "의견": 2446,
      "병원": 2447,
      "싸우": 2448,
      "##ᆺ다": 2449,
      "더불": 2450,
      "자신이": 2451,
      "##삼": 2452,
      "##ᆻ으면": 2453,
      "꿈": 2454,
      "##사의": 2455,
      "그걸": 2456,
      "##아야": 2457,
      "##겠네": 2458,
      "펼": 2459,
      "##되지": 2460,
      "##심히": 2461,
      "가져": 2462,
      "훈": 2463,
      "있어서": 2464,
      "우선": 2465,
      "전에": 2466,
      "처럼": 2467,
      "##지로": 2468,
      "걱정": 2469,
      "##무원": 2470,
      "신경": 2471,
      "##이란": 2472,
      "목표": 2473,
      "##려서": 2474,
      "드라마": 2475,
      "늦": 2476,
      "##리에": 2477,
      "##픈": 2478,
      "##좌": 2479,
      "##더라도": 2480,
      "##임을": 2481,
      "##동산": 2482,
      "##하는게": 2483,
      "밑": 2484,
      "여행": 2485,
      "우리는": 2486,
      "갑자기": 2487,
      "##ᆻ지만": 2488,
      "음악": 2489,
      "##지지": 2490,
      "##찍": 2491,
      "정도로": 2492,
      "님": 2493,
      "매출": 2494,
      "##하다고": 2495,
      "달러": 2496,
      "##스의": 2497,
      "##이를": 2498,
      "습니다": 2499,
      "쓴": 2500,
      "맛": 2501,
      "전략": 2502,
      "##감을": 2503,
      "주민": 2504,
      "다가": 2505,
      "##수도": 2506,
      "##먹고": 2507,
      "품": 2508,
      "일어나": 2509,
      "낙": 2510,
      "##도로": 2511,
      "##이며": 2512,
      "##간다": 2513,
      "##ᆫ트": 2514,
      "여기서": 2515,
      "움직": 2516,
      "지속": 2517,
      "##만큼": 2518,
      "앞서": 2519,
      "23": 2520,
      "직원": 2521,
      "빨갱이": 2522,
      "분야": 2523,
      "##으니까": 2524,
      "다양한": 2525,
      "어쩌": 2526,
      "##식으로": 2527,
      "그동안": 2528,
      "어머니": 2529,
      "못하고": 2530,
      "생겨": 2531,
      "회장": 2532,
      "22": 2533,
      "출신": 2534,
      "아님": 2535,
      "##시장": 2536,
      "아파트": 2537,
      "바람": 2538,
      "##른다": 2539,
      "##뢰": 2540,
      "지키": 2541,
      "##새끼": 2542,
      "##헤": 2543,
      "##건데": 2544,
      "콘": 2545,
      "##학생": 2546,
      "##물을": 2547,
      "짱": 2548,
      "차지": 2549,
      "저는": 2550,
      "뻔": 2551,
      "중앙": 2552,
      "##해요": 2553,
      "또는": 2554,
      "조작": 2555,
      "나라가": 2556,
      "각각": 2557,
      "친일": 2558,
      "대단": 2559,
      "##하였다": 2560,
      "##잘": 2561,
      "##ᆯ레": 2562,
      "주요": 2563,
      "사람들은": 2564,
      "##내는": 2565,
      "##대를": 2566,
      "수익": 2567,
      "아래": 2568,
      "##와서": 2569,
      "고려": 2570,
      "사과": 2571,
      "##ᆸ고": 2572,
      "##운동": 2573,
      "##왜": 2574,
      "##군요": 2575,
      "보호": 2576,
      "녹": 2577,
      "선동": 2578,
      "빌": 2579,
      "하면서": 2580,
      "끊": 2581,
      "빈": 2582,
      "인해": 2583,
      "발견": 2584,
      "세월": 2585,
      "##봐라": 2586,
      "귀여": 2587,
      "##완": 2588,
      "검사": 2589,
      "따라서": 2590,
      "열린": 2591,
      "##만에": 2592,
      "계약": 2593,
      "건설": 2594,
      "헌": 2595,
      "달라": 2596,
      "여론": 2597,
      "모르는": 2598,
      "##나는": 2599,
      "##요일": 2600,
      "##구요": 2601,
      "##거든": 2602,
      "새끼": 2603,
      "부동산": 2604,
      "개선": 2605,
      "##체가": 2606,
      "##조건": 2607,
      "않을": 2608,
      "훨": 2609,
      "열심히": 2610,
      "대회": 2611,
      "시켜": 2612,
      "수출": 2613,
      "영화를": 2614,
      "하다": 2615,
      "##왔다": 2616,
      "그룹": 2617,
      "##대한": 2618,
      "아쉬": 2619,
      "유럽": 2620,
      "##자인": 2621,
      "##억원": 2622,
      "적극": 2623,
      "등의": 2624,
      "##냐고": 2625,
      "##드시": 2626,
      "행사": 2627,
      "싶은": 2628,
      "시절": 2629,
      "흘": 2630,
      "든": 2631,
      "##내고": 2632,
      "영업": 2633,
      "먹고": 2634,
      "안보": 2635,
      "선생": 2636,
      "시스테": 2637,
      "이전": 2638,
      "##ᅥᆫ드": 2639,
      "##화가": 2640,
      "##던데": 2641,
      "##람이": 2642,
      "못하는": 2643,
      "##대는": 2644,
      "푸": 2645,
      "컨": 2646,
      "남편": 2647,
      "있지": 2648,
      "##사회": 2649,
      "##엄": 2650,
      "실제로": 2651,
      "뒷": 2652,
      "나ᄂ": 2653,
      "현장": 2654,
      "여러분": 2655,
      "총선": 2656,
      "사망": 2657,
      "혁": 2658,
      "불러": 2659,
      "##컷": 2660,
      "가는": 2661,
      "가치": 2662,
      "기능": 2663,
      "##수는": 2664,
      "택": 2665,
      "가서": 2666,
      "##뎃": 2667,
      "는데": 2668,
      "##잔": 2669,
      "의료": 2670,
      "정확": 2671,
      "##보다는": 2672,
      "방문": 2673,
      "##8년": 2674,
      "##만이": 2675,
      "언급": 2676,
      "챙": 2677,
      "##품을": 2678,
      "##사업": 2679,
      "유명": 2680,
      "입니다": 2681,
      "광고": 2682,
      "##교육": 2683,
      "##하라": 2684,
      "부정": 2685,
      "##킹": 2686,
      "##거다": 2687,
      "비해": 2688,
      "##털": 2689,
      "알았": 2690,
      "사는": 2691,
      "설치": 2692,
      "뭐가": 2693,
      "##휘": 2694,
      "업무": 2695,
      "##당이": 2696,
      "데이": 2697,
      "인터넷": 2698,
      "숙": 2699,
      "수가": 2700,
      "##난다": 2701,
      "안타": 2702,
      "##밥": 2703,
      "##꾼": 2704,
      "##감이": 2705,
      "지도": 2706,
      "##명의": 2707,
      "자동차": 2708,
      "##했을": 2709,
      "##끔": 2710,
      "##가가": 2711,
      "LG": 2712,
      "아버지": 2713,
      "꼴": 2714,
      "##ᆯ러": 2715,
      "갖고": 2716,
      "했는데": 2717,
      "거기": 2718,
      "##움을": 2719,
      "이라고": 2720,
      "##놔": 2721,
      "##벨": 2722,
      "영국": 2723,
      "졸": 2724,
      "최소": 2725,
      "##간에": 2726,
      "##흐": 2727,
      "##끌": 2728,
      "니들": 2729,
      "이는": 2730,
      "##뷰": 2731,
      "##대체": 2732,
      "##나가": 2733,
      "주식": 2734,
      "구속": 2735,
      "이동": 2736,
      "##점이": 2737,
      "##거야": 2738,
      "시험": 2739,
      "집단": 2740,
      "##특": 2741,
      "평균": 2742,
      "##팀": 2743,
      "이뤄": 2744,
      "지구": 2745,
      "##전을": 2746,
      "작업": 2747,
      "여전": 2748,
      "인천": 2749,
      "##7년": 2750,
      "##리스": 2751,
      "##곤": 2752,
      "아베": 2753,
      "자식": 2754,
      "나쁜": 2755,
      "##리즈": 2756,
      "혜": 2757,
      "겪": 2758,
      "##지면": 2759,
      "##5년": 2760,
      "##우는": 2761,
      "##없다": 2762,
      "염": 2763,
      "상품": 2764,
      "##대표": 2765,
      "였": 2766,
      "##9년": 2767,
      "##금을": 2768,
      "잊": 2769,
      "글로": 2770,
      "무시": 2771,
      "고민": 2772,
      "국민들": 2773,
      "외교": 2774,
      "##했지만": 2775,
      "있으면": 2776,
      "##쇼": 2777,
      "단순": 2778,
      "##물이": 2779,
      "##문을": 2780,
      "##나오": 2781,
      "##칭": 2782,
      "옛": 2783,
      "##쌍": 2784,
      "##생각": 2785,
      "국회의원": 2786,
      "단체": 2787,
      "##돼지": 2788,
      "##페이": 2789,
      "주는": 2790,
      "흑": 2791,
      "##ᆻ어요": 2792,
      "##맹": 2793,
      "탄핵": 2794,
      "##갑": 2795,
      "##전자": 2796,
      "##의를": 2797,
      "라이": 2798,
      "##쯤": 2799,
      "##인트": 2800,
      "시청": 2801,
      "주택": 2802,
      "공급": 2803,
      "##제가": 2804,
      "훨씬": 2805,
      "좋아요": 2806,
      "##촌": 2807,
      "불법": 2808,
      "반면": 2809,
      "어찌": 2810,
      "넘어": 2811,
      "통합": 2812,
      "보험": 2813,
      "소설": 2814,
      "##준다": 2815,
      "##해보": 2816,
      "확보": 2817,
      "26": 2818,
      "사기": 2819,
      "##흥": 2820,
      "도대체": 2821,
      "나올": 2822,
      "##선을": 2823,
      "##씀": 2824,
      "되면": 2825,
      "굳": 2826,
      "많다": 2827,
      "아는": 2828,
      "의사": 2829,
      "이래": 2830,
      "##ᆺ데": 2831,
      "##웅": 2832,
      "받은": 2833,
      "그가": 2834,
      "우려": 2835,
      "##암": 2836,
      "##헌": 2837,
      "오전": 2838,
      "본인": 2839,
      "영상": 2840,
      "##워서": 2841,
      "처리": 2842,
      "##었습니다": 2843,
      "##프로": 2844,
      "불가": 2845,
      "잇": 2846,
      "##딱": 2847,
      "27": 2848,
      "공무원": 2849,
      "샤": 2850,
      "반드시": 2851,
      "생각을": 2852,
      "혈": 2853,
      "##국민": 2854,
      "##지게": 2855,
      "##계를": 2856,
      "아들": 2857,
      "따르면": 2858,
      "##렴": 2859,
      "놀라": 2860,
      "벌어": 2861,
      "##링": 2862,
      "카드": 2863,
      "타이": 2864,
      "다들": 2865,
      "하늘": 2866,
      "SK": 2867,
      "뿌": 2868,
      "##었을": 2869,
      "케": 2870,
      "아빠": 2871,
      "처벌": 2872,
      "##가를": 2873,
      "사람을": 2874,
      "젊은": 2875,
      "위치": 2876,
      "제외": 2877,
      "##이상": 2878,
      "컴": 2879,
      "28": 2880,
      "##할때": 2881,
      "밖": 2882,
      "나중에": 2883,
      "꽃": 2884,
      "##ᅪᆯ": 2885,
      "멍": 2886,
      "개혁": 2887,
      "성격": 2888,
      "무조건": 2889,
      "##6년": 2890,
      "보도": 2891,
      "과학": 2892,
      "공감": 2893,
      "##풀": 2894,
      "오른": 2895,
      "이익": 2896,
      "빛": 2897,
      "희망": 2898,
      "##권을": 2899,
      "전화": 2900,
      "##과의": 2901,
      "##듯이": 2902,
      "아프": 2903,
      "안정": 2904,
      "프랑": 2905,
      "걸리": 2906,
      "도록": 2907,
      "도와": 2908,
      "60": 2909,
      "##ᆻ어": 2910,
      "참석": 2911,
      "##잖아요": 2912,
      "되지": 2913,
      "너희": 2914,
      "##러스": 2915,
      "섬": 2916,
      "##대에": 2917,
      "강력": 2918,
      "그려": 2919,
      "공식": 2920,
      "##델": 2921,
      "만약": 2922,
      "소재": 2923,
      "아름": 2924,
      "자세": 2925,
      "전문가": 2926,
      "##까요": 2927,
      "신고": 2928,
      "의해": 2929,
      "벼": 2930,
      "##BC": 2931,
      "스포": 2932,
      "광주": 2933,
      "걍": 2934,
      "##원은": 2935,
      "최초": 2936,
      "##이지만": 2937,
      "투표": 2938,
      "김정은": 2939,
      "이기": 2940,
      "아니냐": 2941,
      "하여": 2942,
      "빠져": 2943,
      "대응": 2944,
      "자주": 2945,
      "작은": 2946,
      "브랜드": 2947,
      "보통": 2948,
      "없을": 2949,
      "올려": 2950,
      "있게": 2951,
      "마치": 2952,
      "해라": 2953,
      "##로서": 2954,
      "보기": 2955,
      "잡아": 2956,
      "##품이": 2957,
      "##위에": 2958,
      "있으며": 2959,
      "등이": 2960,
      "##개월": 2961,
      "롯데": 2962,
      "맥": 2963,
      "##받고": 2964,
      "남성": 2965,
      "공간": 2966,
      "종교": 2967,
      "선정": 2968,
      "##샤": 2969,
      "마이": 2970,
      "쉽게": 2971,
      "쥐": 2972,
      "##여서": 2973,
      "때는": 2974,
      "돈을": 2975,
      "이젠": 2976,
      "가짜": 2977,
      "두고": 2978,
      "대책": 2979,
      "소개": 2980,
      "누군": 2981,
      "##세계": 2982,
      "감동": 2983,
      "TV": 2984,
      "납": 2985,
      "생기": 2986,
      "##럼프": 2987,
      "##드리": 2988,
      "신천지": 2989,
      "소속": 2990,
      "니들이": 2991,
      "프로그램": 2992,
      "거짓말": 2993,
      "글로벌": 2994,
      "맞는": 2995,
      "싶다": 2996,
      "정당": 2997,
      "불안": 2998,
      "곡": 2999,
      "##텔": 3000,
      "권력": 3001,
      "##일을": 3002,
      "그거": 3003,
      "##이라도": 3004,
      "점점": 3005,
      "제시": 3006,
      "##ᅪᆯ영": 3007,
      "제목": 3008,
      "관광": 3009,
      "유치": 3010,
      "나온다": 3011,
      "래": 3012,
      "도입": 3013,
      "##둔": 3014,
      "실시": 3015,
      "들고": 3016,
      "당연히": 3017,
      "오는": 3018,
      "장기": 3019,
      "지금까지": 3020,
      "##지역": 3021,
      "괜찮": 3022,
      "진실": 3023,
      "##시민": 3024,
      "한심": 3025,
      "##도는": 3026,
      "모양": 3027,
      "연결": 3028,
      "반응": 3029,
      "##짐": 3030,
      "독일": 3031,
      "##생활": 3032,
      "##닝": 3033,
      "미리": 3034,
      "왔": 3035,
      "나라를": 3036,
      "##겠다고": 3037,
      "여전히": 3038,
      "##이기": 3039,
      "##눈": 3040,
      "##인들": 3041,
      "않아": 3042,
      "##어버": 3043,
      "선보": 3044,
      "##가리": 3045,
      "심각": 3046,
      "논란": 3047,
      "##움이": 3048,
      "##는걸": 3049,
      "##트를": 3050,
      "따른": 3051,
      "##ᆷ버": 3052,
      "주고": 3053,
      "##만한": 3054,
      "##하다는": 3055,
      "보유": 3056,
      "청소": 3057,
      "실패": 3058,
      "##윤": 3059,
      "거리": 3060,
      "회의": 3061,
      "려": 3062,
      "증거": 3063,
      "##4년": 3064,
      "뉴스": 3065,
      "시간이": 3066,
      "느낌": 3067,
      "##랙": 3068,
      "##ᅮᆯ러": 3069,
      "마찬": 3070,
      "말하는": 3071,
      "국민의": 3072,
      "스마트": 3073,
      "##2년": 3074,
      "끌어": 3075,
      "##자들은": 3076,
      "##튜": 3077,
      "말씀": 3078,
      "최종": 3079,
      "라며": 3080,
      "좋다": 3081,
      "대깨": 3082,
      "옮": 3083,
      "1년": 3084,
      "자꾸": 3085,
      "공연": 3086,
      "##ᆷ픽": 3087,
      "인상": 3088,
      "내부": 3089,
      "국민이": 3090,
      "전투": 3091,
      "고통": 3092,
      "쉽": 3093,
      "##끼리": 3094,
      "익": 3095,
      "##었지만": 3096,
      "사태": 3097,
      "방식": 3098,
      "좌빨": 3099,
      "무능": 3100,
      "시설": 3101,
      "##궁": 3102,
      "십": 3103,
      "##수의": 3104,
      "트럼프": 3105,
      "감소": 3106,
      "추천": 3107,
      "독립": 3108,
      "주제": 3109,
      "짧": 3110,
      "승리": 3111,
      "주목": 3112,
      "형태": 3113,
      "더불어": 3114,
      "어려운": 3115,
      "##ᆼ장": 3116,
      "사무": 3117,
      "##쇄": 3118,
      "##너지": 3119,
      "가정": 3120,
      "출시": 3121,
      "비롯": 3122,
      "애들": 3123,
      "스트": 3124,
      "각종": 3125,
      "수입": 3126,
      "비용": 3127,
      "진심": 3128,
      "##운드": 3129,
      "##시면": 3130,
      "29": 3131,
      "좋아하는": 3132,
      "방향": 3133,
      "##대의": 3134,
      "열리": 3135,
      "##성은": 3136,
      "마을": 3137,
      "##기의": 3138,
      "##로운": 3139,
      "##올리": 3140,
      "싫어": 3141,
      "묘": 3142,
      "##섯": 3143,
      "##으로써": 3144,
      "##하거나": 3145,
      "##와의": 3146,
      "힘을": 3147,
      "정부가": 3148,
      "변호": 3149,
      "시행": 3150,
      "조용": 3151,
      "##는거지": 3152,
      "아까": 3153,
      "별로": 3154,
      "비슷": 3155,
      "##이자": 3156,
      "촬영": 3157,
      "마찬가지": 3158,
      "레이": 3159,
      "만드는": 3160,
      "불구": 3161,
      "응원": 3162,
      "그나": 3163,
      "신청": 3164,
      "사실을": 3165,
      "##과는": 3166,
      "##서를": 3167,
      "##이어": 3168,
      "있기": 3169,
      "이야기를": 3170,
      "##조사": 3171,
      "##그룹": 3172,
      "##멸": 3173,
      "냉": 3174,
      "##것이": 3175,
      "회복": 3176,
      "##ᆸ시다": 3177,
      "중소": 3178,
      "##으로는": 3179,
      "##부는": 3180,
      "##수있": 3181,
      "##장에": 3182,
      "자체가": 3183,
      "##두고": 3184,
      "지금은": 3185,
      "##으로서": 3186,
      "포기": 3187,
      "##들고": 3188,
      "##냈다": 3189,
      "##혈": 3190,
      "202": 3191,
      "##디오": 3192,
      "본격": 3193,
      "##머리": 3194,
      "대선": 3195,
      "이사": 3196,
      "##부가": 3197,
      "이때": 3198,
      "대통령이": 3199,
      "국민들이": 3200,
      "예산": 3201,
      "혐의": 3202,
      "##개를": 3203,
      "교회": 3204,
      "바꾸": 3205,
      "##안을": 3206,
      "##3년": 3207,
      "일으": 3208,
      "##부를": 3209,
      "장애": 3210,
      "아내": 3211,
      "대출": 3212,
      "##했다는": 3213,
      "좋겠다": 3214,
      "음식": 3215,
      "플레이": 3216,
      "다며": 3217,
      "청년": 3218,
      "##하세요": 3219,
      "전자": 3220,
      "부담": 3221,
      "이끌": 3222,
      "상관": 3223,
      "감염": 3224,
      "쌓": 3225,
      "##ᆰ은": 3226,
      "대깨문": 3227,
      "##장의": 3228,
      "이유가": 3229,
      "보여주": 3230,
      "이루어": 3231,
      "##세를": 3232,
      "##마디": 3233,
      "자료": 3234,
      "진출": 3235,
      "그러면": 3236,
      "##빛": 3237,
      "넌": 3238,
      "##장에서": 3239,
      "##건지": 3240,
      "저거": 3241,
      "필요한": 3242,
      "오랜": 3243,
      "##딴": 3244,
      "##등학교": 3245,
      "##져서": 3246,
      "평화": 3247,
      "##단체": 3248,
      "거지": 3249,
      "할머니": 3250,
      "유일": 3251,
      "##ᆮ고": 3252,
      "불쌍": 3253,
      "살인": 3254,
      "제도": 3255,
      "매일": 3256,
      "연출": 3257,
      "하락": 3258,
      "70": 3259,
      "재앙": 3260,
      "초반": 3261,
      "##몬": 3262,
      "국민을": 3263,
      "##위원회": 3264,
      "담당": 3265,
      "있도록": 3266,
      "사례": 3267,
      "그럴": 3268,
      "깔": 3269,
      "##럭": 3270,
      "핵심": 3271,
      "##왔": 3272,
      "됐다": 3273,
      "##하기도": 3274,
      "자본": 3275,
      "##가고": 3276,
      "의혹": 3277,
      "나무": 3278,
      "힘든": 3279,
      "참고": 3280,
      "부탁": 3281,
      "자랑": 3282,
      "뚜": 3283,
      "우승": 3284,
      "생각해": 3285,
      "통신": 3286,
      "없애": 3287,
      "보이는": 3288,
      "##라리": 3289,
      "##주가": 3290,
      "##함을": 3291,
      "##습니까": 3292,
      "평생": 3293,
      "##원의": 3294,
      "옷": 3295,
      "동생": 3296,
      "관계자": 3297,
      "감정": 3298,
      "케이": 3299,
      "강남": 3300,
      "##겠습니다": 3301,
      "받을": 3302,
      "증권": 3303,
      "##기관": 3304,
      "##분에": 3305,
      "란": 3306,
      "##아버": 3307,
      "어디서": 3308,
      "부르": 3309,
      "전개": 3310,
      "탓": 3311,
      "##소를": 3312,
      "차량": 3313,
      "참가": 3314,
      "대형": 3315,
      "하기": 3316,
      "코스": 3317,
      "쓰는": 3318,
      "그저": 3319,
      "##조차": 3320,
      "##란다": 3321,
      "아름다": 3322,
      "##센터": 3323,
      "첨": 3324,
      "관한": 3325,
      "경우가": 3326,
      "안타까": 3327,
      "제기": 3328,
      "받는": 3329,
      "##몰": 3330,
      "##경제": 3331,
      "시리즈": 3332,
      "발언": 3333,
      "프리": 3334,
      "아예": 3335,
      "러시아": 3336,
      "31": 3337,
      "했던": 3338,
      "##당은": 3339,
      "파악": 3340,
      "##겠다는": 3341,
      "자격": 3342,
      "깜": 3343,
      "해주": 3344,
      "인도": 3345,
      "관객": 3346,
      "됩니다": 3347,
      "##로부터": 3348,
      "불과": 3349,
      "유리": 3350,
      "이유는": 3351,
      "지하": 3352,
      "동시에": 3353,
      "이걸": 3354,
      "##봐야": 3355,
      "소득": 3356,
      "당장": 3357,
      "수요": 3358,
      "업계": 3359,
      "외국인": 3360,
      "##1년": 3361,
      "##둥": 3362,
      "##첩": 3363,
      "저도": 3364,
      "대화": 3365,
      "않다": 3366,
      "생각하는": 3367,
      "사장": 3368,
      "##든지": 3369,
      "단계": 3370,
      "말도": 3371,
      "약간": 3372,
      "##지어": 3373,
      "##섭": 3374,
      "엉": 3375,
      "전기": 3376,
      "척": 3377,
      "세월호": 3378,
      "##또": 3379,
      "##스러운": 3380,
      "##작가": 3381,
      "독재": 3382,
      "충분히": 3383,
      "국정": 3384,
      "##시킨": 3385,
      "확진": 3386,
      "##지말고": 3387,
      "##인거": 3388,
      "##느냐": 3389,
      "##스코": 3390,
      "적이": 3391,
      "혹은": 3392,
      "인식": 3393,
      "제주": 3394,
      "지급": 3395,
      "##ᆺ불": 3396,
      "전환": 3397,
      "##ᆻ지": 3398,
      "시스템": 3399,
      "바꿔": 3400,
      "재판": 3401,
      "노조": 3402,
      "공공": 3403,
      "##들만": 3404,
      "촉": 3405,
      "가르": 3406,
      "##라며": 3407,
      "##르게": 3408,
      "##관계": 3409,
      "자금": 3410,
      "대중": 3411,
      "##구가": 3412,
      "전달": 3413,
      "조건": 3414,
      "##들에": 3415,
      "성과": 3416,
      "에이": 3417,
      "##치가": 3418,
      "##렌": 3419,
      "##나게": 3420,
      "있었던": 3421,
      "떨": 3422,
      "예술": 3423,
      "##것같": 3424,
      "주로": 3425,
      "##씨는": 3426,
      "것이라고": 3427,
      "동물": 3428,
      "개최": 3429,
      "가입": 3430,
      "##우고": 3431,
      "##라서": 3432,
      "자신을": 3433,
      "##이라면": 3434,
      "완전히": 3435,
      "개돼지": 3436,
      "##분이": 3437,
      "자산": 3438,
      "##ᆨ트": 3439,
      "온라인": 3440,
      "행정": 3441,
      "법무": 3442,
      "##였던": 3443,
      "##많은": 3444,
      "없다고": 3445,
      "하며": 3446,
      "인권": 3447,
      "굉장": 3448,
      "나머": 3449,
      "2년": 3450,
      "영어": 3451,
      "##일보": 3452,
      "겁": 3453,
      "인수": 3454,
      "하는거": 3455,
      "##어라": 3456,
      "##가락": 3457,
      "##앞": 3458,
      "##위가": 3459,
      "분량": 3460,
      "##낼": 3461,
      "##뒤": 3462,
      "인기": 3463,
      "##렬": 3464,
      "쓰고": 3465,
      "##반기": 3466,
      "아시아": 3467,
      "##켓": 3468,
      "달려": 3469,
      "##농": 3470,
      "배경": 3471,
      "지난달": 3472,
      "남아": 3473,
      "훈련": 3474,
      "##민주": 3475,
      "교통": 3476,
      "과연": 3477,
      "##리면": 3478,
      "해석": 3479,
      "##러워": 3480,
      "##영이": 3481,
      "민족": 3482,
      "##비를": 3483,
      "##김": 3484,
      "미쳐": 3485,
      "탐": 3486,
      "##넣": 3487,
      "##메이": 3488,
      "마음이": 3489,
      "##산업": 3490,
      "건물": 3491,
      "##웹툰": 3492,
      "조정": 3493,
      "##예요": 3494,
      "##퓨": 3495,
      "화장": 3496,
      "전통": 3497,
      "집에": 3498,
      "센터": 3499,
      "메이": 3500,
      "##신이": 3501,
      "없다는": 3502,
      "썩": 3503,
      "안되는": 3504,
      "##같은데": 3505,
      "선발": 3506,
      "칭": 3507,
      "합의": 3508,
      "황교": 3509,
      "살고": 3510,
      "협력": 3511,
      "입국": 3512,
      "고용": 3513,
      "##일에": 3514,
      "하게": 3515,
      "탑": 3516,
      "봐도": 3517,
      "제한": 3518,
      "자살": 3519,
      "모습이": 3520,
      "연속": 3521,
      "토착": 3522,
      "번째": 3523,
      "영화는": 3524,
      "마음을": 3525,
      "팩": 3526,
      "##상의": 3527,
      "##스럽게": 3528,
      "198": 3529,
      "가만": 3530,
      "##가요": 3531,
      "펀드": 3532,
      "째": 3533,
      "장난": 3534,
      "##롱": 3535,
      "##장관": 3536,
      "벤": 3537,
      "이명": 3538,
      "눈에": 3539,
      "500": 3540,
      "덧": 3541,
      "혹시": 3542,
      "##시키는": 3543,
      "상당히": 3544,
      "##임이": 3545,
      "##싱": 3546,
      "##적이고": 3547,
      "안된다": 3548,
      "옥": 3549,
      "##무리": 3550,
      "##그러": 3551,
      "##펴": 3552,
      "##뉴스": 3553,
      "아닐까": 3554,
      "유니": 3555,
      "적폐": 3556,
      "끝까지": 3557,
      "줄어": 3558,
      "##뻔": 3559,
      "비난": 3560,
      "힘이": 3561,
      "공정": 3562,
      "##한게": 3563,
      "쌍": 3564,
      "아무도": 3565,
      "모르고": 3566,
      "속에서": 3567,
      "위에": 3568,
      "애초": 3569,
      "##리의": 3570,
      "바다": 3571,
      "##겠냐": 3572,
      "##려야": 3573,
      "##레스": 3574,
      "진보": 3575,
      "##자고": 3576,
      "##차피": 3577,
      "단지": 3578,
      "##기만": 3579,
      "그건": 3580,
      "낳": 3581,
      "지들": 3582,
      "환자": 3583,
      "대로": 3584,
      "률": 3585,
      "##인들이": 3586,
      "차라리": 3587,
      "늘어나": 3588,
      "페이": 3589,
      "차례": 3590,
      "취업": 3591,
      "상처": 3592,
      "비슷한": 3593,
      "##회사": 3594,
      "전라도": 3595,
      "헐": 3596,
      "포인트": 3597,
      "넓": 3598,
      "구매": 3599,
      "##껏": 3600,
      "이와": 3601,
      "조성": 3602,
      "##말로": 3603,
      "모델": 3604,
      "뛰어": 3605,
      "##율이": 3606,
      "재산": 3607,
      "##적을": 3608,
      "##컬": 3609,
      "멤버": 3610,
      "프랑스": 3611,
      "##님의": 3612,
      "관계자는": 3613,
      "강한": 3614,
      "최저": 3615,
      "##구를": 3616,
      "평소": 3617,
      "는다": 3618,
      "있으니": 3619,
      "##덜": 3620,
      "굴": 3621,
      "##퀴": 3622,
      "사람의": 3623,
      "꼽": 3624,
      "논의": 3625,
      "떼": 3626,
      "죽은": 3627,
      "듣고": 3628,
      "봤": 3629,
      "서민": 3630,
      "어차피": 3631,
      "##한다면": 3632,
      "역할을": 3633,
      "어렵": 3634,
      "오빠": 3635,
      "받았다": 3636,
      "목수": 3637,
      "철저": 3638,
      "기획": 3639,
      "니네": 3640,
      "##사람이": 3641,
      "##진이": 3642,
      "정리": 3643,
      "##았던": 3644,
      "##체를": 3645,
      "알바": 3646,
      "알게": 3647,
      "떡": 3648,
      "약속": 3649,
      "타고": 3650,
      "왠": 3651,
      "설립": 3652,
      "저희": 3653,
      "80": 3654,
      "연재": 3655,
      "있어야": 3656,
      "불편": 3657,
      "종합": 3658,
      "어째": 3659,
      "것처럼": 3660,
      "재미있": 3661,
      "벌써": 3662,
      "##콩": 3663,
      "연예": 3664,
      "##땅": 3665,
      "##원에": 3666,
      "이해가": 3667,
      "##빵": 3668,
      "##인줄": 3669,
      "기반": 3670,
      "물어": 3671,
      "못하": 3672,
      "그러니까": 3673,
      "맘": 3674,
      "##제로": 3675,
      "위원회": 3676,
      "##았는데": 3677,
      "신문": 3678,
      "##롭": 3679,
      "##킬": 3680,
      "헛": 3681,
      "놓고": 3682,
      "반영": 3683,
      "굉장히": 3684,
      "쏟": 3685,
      "시도": 3686,
      "##나서": 3687,
      "금지": 3688,
      "수상": 3689,
      "자기가": 3690,
      "##콘": 3691,
      "한마디": 3692,
      "즐거": 3693,
      "최고의": 3694,
      "애니": 3695,
      "##ᆷ새": 3696,
      "##잇": 3697,
      "3년": 3698,
      "가능성이": 3699,
      "요청": 3700,
      "꽤": 3701,
      "고마": 3702,
      "##하려고": 3703,
      "싱": 3704,
      "연합": 3705,
      "##뇌": 3706,
      "##지요": 3707,
      "어린이": 3708,
      "중에": 3709,
      "##아라": 3710,
      "##만을": 3711,
      "미세": 3712,
      "다행": 3713,
      "위기": 3714,
      "##던가": 3715,
      "거나": 3716,
      "배댓": 3717,
      "##비가": 3718,
      "것입니다": 3719,
      "##에게는": 3720,
      "덜": 3721,
      "작년": 3722,
      "##어를": 3723,
      "의심": 3724,
      "구체": 3725,
      "져": 3726,
      "##시키고": 3727,
      "뮤": 3728,
      "펼쳐": 3729,
      "문제는": 3730,
      "맞춰": 3731,
      "신뢰": 3732,
      "##성과": 3733,
      "##위로": 3734,
      "군대": 3735,
      "##셔서": 3736,
      "앞에": 3737,
      "상상": 3738,
      "갈등": 3739,
      "말은": 3740,
      "목소리": 3741,
      "##홍": 3742,
      "역대": 3743,
      "##촉": 3744,
      "생명": 3745,
      "특징": 3746,
      "##먹는": 3747,
      "인간이": 3748,
      "전해": 3749,
      "##갖": 3750,
      "올림픽": 3751,
      "내놓": 3752,
      "##자들의": 3753,
      "본다": 3754,
      "게다가": 3755,
      "둔": 3756,
      "분위기": 3757,
      "##엘": 3758,
      "##바로": 3759,
      "짐": 3760,
      "직업": 3761,
      "많아": 3762,
      "##케이": 3763,
      "##것이다": 3764,
      "##싶다": 3765,
      "##도의": 3766,
      "비중": 3767,
      "##지의": 3768,
      "경기도": 3769,
      "분노": 3770,
      "도전": 3771,
      "똑같": 3772,
      "##트로": 3773,
      "이라는": 3774,
      "##에서의": 3775,
      "보면서": 3776,
      "고생": 3777,
      "부끄": 3778,
      "있다면": 3779,
      "충격": 3780,
      "예정이다": 3781,
      "##0년대": 3782,
      "노무": 3783,
      "어쩔": 3784,
      "안에": 3785,
      "겁니다": 3786,
      "##하려": 3787,
      "대사": 3788,
      "##투자": 3789,
      "근무": 3790,
      "10년": 3791,
      "검토": 3792,
      "액션": 3793,
      "##ᆻ냐": 3794,
      "이제는": 3795,
      "구축": 3796,
      "고양": 3797,
      "털": 3798,
      "4월": 3799,
      "못할": 3800,
      "인터뷰": 3801,
      "##성에": 3802,
      "##대통령": 3803,
      "미사": 3804,
      "이명박": 3805,
      "이재": 3806,
      "통과": 3807,
      "대변": 3808,
      "영향을": 3809,
      "##수로": 3810,
      "느낌이": 3811,
      "일정": 3812,
      "하이": 3813,
      "공포": 3814,
      "홍보": 3815,
      "스페": 3816,
      "맨날": 3817,
      "##석이": 3818,
      "##탑": 3819,
      "오르": 3820,
      "후반": 3821,
      "희생": 3822,
      "속에": 3823,
      "플래": 3824,
      "차별": 3825,
      "튀": 3826,
      "##놈들": 3827,
      "##봐도": 3828,
      "##을때": 3829,
      "만드": 3830,
      "가면": 3831,
      "중간": 3832,
      "옛날": 3833,
      "예전": 3834,
      "하시": 3835,
      "다녀": 3836,
      "없어서": 3837,
      "덧붙": 3838,
      "흡": 3839,
      "##드를": 3840,
      "##은거": 3841,
      "우리의": 3842,
      "수밖에": 3843,
      "##말이": 3844,
      "##씨가": 3845,
      "##아닌": 3846,
      "##됨": 3847,
      "나만": 3848,
      "사상": 3849,
      "##놈이": 3850,
      "있음": 3851,
      "심지어": 3852,
      "같아요": 3853,
      "가득": 3854,
      "밝히": 3855,
      "나누": 3856,
      "##당한": 3857,
      "영화가": 3858,
      "설정": 3859,
      "부문": 3860,
      "그린": 3861,
      "엄청난": 3862,
      "##국의": 3863,
      "완벽": 3864,
      "##개발": 3865,
      "졸업": 3866,
      "눈치": 3867,
      "300": 3868,
      "##프트": 3869,
      "있어요": 3870,
      "민간": 3871,
      "남북": 3872,
      "도로": 3873,
      "##에만": 3874,
      "##컵": 3875,
      "촛불": 3876,
      "난리": 3877,
      "##했습니다": 3878,
      "걷": 3879,
      "습": 3880,
      "##몽": 3881,
      "차이": 3882,
      "##50": 3883,
      "##고있": 3884,
      "##벤트": 3885,
      "거부": 3886,
      "잠시": 3887,
      "없는데": 3888,
      "##ᆺ지": 3889,
      "벽": 3890,
      "##신을": 3891,
      "통일": 3892,
      "##하신": 3893,
      "##것을": 3894,
      "##만으로": 3895,
      "질문": 3896,
      "##회의": 3897,
      "물건": 3898,
      "##녕": 3899,
      "##어로": 3900,
      "##님은": 3901,
      "그나마": 3902,
      "##었으면": 3903,
      "정부는": 3904,
      "##둬": 3905,
      "하자": 3906,
      "거쳐": 3907,
      "삭": 3908,
      "##둘": 3909,
      "##할수": 3910,
      "지배": 3911,
      "##멍": 3912,
      "##릇": 3913,
      "##개혁": 3914,
      "##스티": 3915,
      "눈물": 3916,
      "##사고": 3917,
      "연애": 3918,
      "##져야": 3919,
      "닮": 3920,
      "돌려": 3921,
      "##사로": 3922,
      "공장": 3923,
      "무기": 3924,
      "헬": 3925,
      "만족": 3926,
      "층": 3927,
      "아침": 3928,
      "##화에": 3929,
      "##법을": 3930,
      "있나": 3931,
      "아닌데": 3932,
      "겨울": 3933,
      "##주행": 3934,
      "##주를": 3935,
      "득": 3936,
      "수행": 3937,
      "##크로": 3938,
      "임명": 3939,
      "했지만": 3940,
      "확정": 3941,
      "답다": 3942,
      "##국가": 3943,
      "##틴": 3944,
      "규제": 3945,
      "떠오": 3946,
      "##깔": 3947,
      "##해야지": 3948,
      "훌": 3949,
      "도움": 3950,
      "캠": 3951,
      "##국이": 3952,
      "이곳": 3953,
      "시간을": 3954,
      "앞에서": 3955,
      "##큐": 3956,
      "시작했다": 3957,
      "항공": 3958,
      "가슴": 3959,
      "##지원": 3960,
      "##화는": 3961,
      "사실상": 3962,
      "따로": 3963,
      "살아가": 3964,
      "군사": 3965,
      "##맛": 3966,
      "일자리": 3967,
      "##렁": 3968,
      "##안이": 3969,
      "##자와": 3970,
      "##원에서": 3971,
      "자녀": 3972,
      "근거": 3973,
      "##사에": 3974,
      "동일": 3975,
      "못하게": 3976,
      "이하": 3977,
      "지니": 3978,
      "문제를": 3979,
      "##떠": 3980,
      "기념": 3981,
      "##거든요": 3982,
      "민주주의": 3983,
      "당선": 3984,
      "1000": 3985,
      "3월": 3986,
      "##전이": 3987,
      "이상한": 3988,
      "살펴": 3989,
      "바보": 3990,
      "분양": 3991,
      "빚": 3992,
      "##스토": 3993,
      "두려": 3994,
      "##뮤": 3995,
      "축구": 3996,
      "띄": 3997,
      "달창": 3998,
      "문재인이": 3999,
      "복지": 4000,
      "##는거야": 4001,
      "##드가": 4002,
      "마무리": 4003,
      "##꼴": 4004,
      "##기술": 4005,
      "##하다가": 4006,
      "##상에": 4007,
      "##온다": 4008,
      "##시가": 4009,
      "굳이": 4010,
      "논리": 4011,
      "##싼": 4012,
      "##둑": 4013,
      "이벤트": 4014,
      "##들한테": 4015,
      "등에": 4016,
      "슈퍼": 4017,
      "##가지고": 4018,
      "나의": 4019,
      "##위는": 4020,
      "##논": 4021,
      "##리카": 4022,
      "##다른": 4023,
      "국방": 4024,
      "##하라고": 4025,
      "못했다": 4026,
      "나를": 4027,
      "##었다고": 4028,
      "##정책": 4029,
      "##겠죠": 4030,
      "완성": 4031,
      "봐야": 4032,
      "멍청": 4033,
      "##er": 4034,
      "보였다": 4035,
      "직장": 4036,
      "나경": 4037,
      "멈": 4038,
      "특수": 4039,
      "##어진": 4040,
      "윤석": 4041,
      "시점": 4042,
      "##ᆺ는데": 4043,
      "선물": 4044,
      "손을": 4045,
      "리그": 4046,
      "여름": 4047,
      "생긴": 4048,
      "제조": 4049,
      "있네": 4050,
      "##해진": 4051,
      "##인간": 4052,
      "으며": 4053,
      "일베": 4054,
      "똑같은": 4055,
      "##라니": 4056,
      "##업체": 4057,
      "위로": 4058,
      "##룡": 4059,
      "나머지": 4060,
      "##듬": 4061,
      "##덩": 4062,
      "##일까": 4063,
      "노무현": 4064,
      "스포츠": 4065,
      "개봉": 4066,
      "##뻐": 4067,
      "##맥": 4068,
      "지식": 4069,
      "##시대": 4070,
      "##관리": 4071,
      "##봤": 4072,
      "돼지": 4073,
      "수는": 4074,
      "혜택": 4075,
      "불구하고": 4076,
      "악플": 4077,
      "어서": 4078,
      "그를": 4079,
      "피해자": 4080,
      "뒤에": 4081,
      "##퓨터": 4082,
      "6월": 4083,
      "확산": 4084,
      "저기": 4085,
      "전반": 4086,
      "##회를": 4087,
      "##활동": 4088,
      "않으면": 4089,
      "##력은": 4090,
      "중소기업": 4091,
      "진정": 4092,
      "##받는": 4093,
      "지가": 4094,
      "어제": 4095,
      "##우스": 4096,
      "##선거": 4097,
      "상황이": 4098,
      "##려라": 4099,
      "##거같": 4100,
      "모자": 4101,
      "##보기": 4102,
      "눈을": 4103,
      "베이": 4104,
      "##함이": 4105,
      "아나": 4106,
      "신규": 4107,
      "등록": 4108,
      "신용": 4109,
      "##성의": 4110,
      "5월": 4111,
      "쟤": 4112,
      "이름을": 4113,
      "수술": 4114,
      "못했": 4115,
      "##묵": 4116,
      "##문화": 4117,
      "월드": 4118,
      "기부": 4119,
      "조치": 4120,
      "미안": 4121,
      "##것들": 4122,
      "나왔": 4123,
      "안나": 4124,
      "만에": 4125,
      "베뎃": 4126,
      "야당": 4127,
      "##께서": 4128,
      "저지": 4129,
      "맺": 4130,
      "둘러": 4131,
      "##리기": 4132,
      "##쓸": 4133,
      "동네": 4134,
      "벗어나": 4135,
      "것에": 4136,
      "##자나": 4137,
      "전시": 4138,
      "어른": 4139,
      "답답": 4140,
      "도망": 4141,
      "그들의": 4142,
      "##단을": 4143,
      "청소년": 4144,
      "##왜구": 4145,
      "일본이": 4146,
      "##선이": 4147,
      "접근": 4148,
      "죽음": 4149,
      "##아이": 4150,
      "일은": 4151,
      "지분": 4152,
      "왔다": 4153,
      "##개의": 4154,
      "반복": 4155,
      "관심을": 4156,
      "90": 4157,
      "주도": 4158,
      "##느라": 4159,
      "##문이": 4160,
      "돈이": 4161,
      "일상": 4162,
      "##탓": 4163,
      "##녁": 4164,
      "##관이": 4165,
      "너네": 4166,
      "##리그": 4167,
      "내일": 4168,
      "율": 4169,
      "존나": 4170,
      "##부로": 4171,
      "그러니": 4172,
      "바탕": 4173,
      "믿고": 4174,
      "##행을": 4175,
      "월급": 4176,
      "닭": 4177,
      "##갔다": 4178,
      "와서": 4179,
      "인간의": 4180,
      "시각": 4181,
      "어울": 4182,
      "옳": 4183,
      "개정": 4184,
      "##도에": 4185,
      "##장으로": 4186,
      "기초": 4187,
      "판결": 4188,
      "지랄": 4189,
      "##부의": 4190,
      "##줘야": 4191,
      "##컨": 4192,
      "애초에": 4193,
      "실적": 4194,
      "의무": 4195,
      "가능한": 4196,
      "인구": 4197,
      "말해": 4198,
      "소유": 4199,
      "특정": 4200,
      "분기": 4201,
      "##아내": 4202,
      "안하고": 4203,
      "내용이": 4204,
      "시기": 4205,
      "##댓이": 4206,
      "9월": 4207,
      "그것도": 4208,
      "##시설": 4209,
      "##질을": 4210,
      "만들고": 4211,
      "빅": 4212,
      "여기에": 4213,
      "무려": 4214,
      "미세먼": 4215,
      "##마라": 4216,
      "에너지": 4217,
      "싸움": 4218,
      "##뭐": 4219,
      "##10": 4220,
      "무너": 4221,
      "##것은": 4222,
      "##방송": 4223,
      "유통": 4224,
      "##뷔": 4225,
      "아무것도": 4226,
      "##증권": 4227,
      "10월": 4228,
      "##이익": 4229,
      "매력": 4230,
      "향후": 4231,
      "덮": 4232,
      "돌리": 4233,
      "##톤": 4234,
      "##지기": 4235,
      "KBS": 4236,
      "우수": 4237,
      "혁신": 4238,
      "결론": 4239,
      "개념": 4240,
      "12월": 4241,
      "곤": 4242,
      "맹": 4243,
      "##국에": 4244,
      "긍": 4245,
      "원하는": 4246,
      "##하려는": 4247,
      "규정": 4248,
      "핑": 4249,
      "다이": 4250,
      "##약을": 4251,
      "컴퓨터": 4252,
      "그것은": 4253,
      "그들은": 4254,
      "근로": 4255,
      "중단": 4256,
      "##세대": 4257,
      "짜증": 4258,
      "세워": 4259,
      "나눠": 4260,
      "7월": 4261,
      "##는가": 4262,
      "골프": 4263,
      "##없고": 4264,
      "된다고": 4265,
      "꾸준": 4266,
      "##보자": 4267,
      "일제": 4268,
      "외모": 4269,
      "마법": 4270,
      "##ᆸ을": 4271,
      "소비자": 4272,
      "그녀의": 4273,
      "진정한": 4274,
      "같습니다": 4275,
      "##마자": 4276,
      "담배": 4277,
      "봤는데": 4278,
      "##학년": 4279,
      "##끝": 4280,
      "##겼다": 4281,
      "##세가": 4282,
      "##ᆫ데": 4283,
      "##민이": 4284,
      "조합": 4285,
      "##와는": 4286,
      "##보네": 4287,
      "싫어요": 4288,
      "대기업": 4289,
      "##소가": 4290,
      "노인": 4291,
      "하나의": 4292,
      "현지": 4293,
      "비행": 4294,
      "인제": 4295,
      "독자": 4296,
      "##명은": 4297,
      "##빼": 4298,
      "구분": 4299,
      "목적": 4300,
      "여자가": 4301,
      "잘생": 4302,
      "변경": 4303,
      "대박": 4304,
      "공사": 4305,
      "중국인": 4306,
      "하네": 4307,
      "##쾌": 4308,
      "데이터": 4309,
      "인지": 4310,
      "##시오": 4311,
      "지지율": 4312,
      "태양": 4313,
      "베트": 4314,
      "마라": 4315,
      "빵": 4316,
      "가벼": 4317,
      "닥": 4318,
      "##안에": 4319,
      "불가능": 4320,
      "##묘": 4321,
      "조심": 4322,
      "##드로": 4323,
      "우주": 4324,
      "그만큼": 4325,
      "없습니다": 4326,
      "##만의": 4327,
      "무대": 4328,
      "그녀는": 4329,
      "표정": 4330,
      "그렇지": 4331,
      "나름": 4332,
      "다소": 4333,
      "보장": 4334,
      "MBC": 4335,
      "긴장": 4336,
      "왼": 4337,
      "##우가": 4338,
      "맞아": 4339,
      "거야": 4340,
      "흘러": 4341,
      "##있는데": 4342,
      "의식": 4343,
      "되는데": 4344,
      "가구": 4345,
      "블랙": 4346,
      "준다": 4347,
      "카메": 4348,
      "##질이": 4349,
      "말아": 4350,
      "사퇴": 4351,
      "것들이": 4352,
      "최악": 4353,
      "하나도": 4354,
      "##문제": 4355,
      "##리오": 4356,
      "형성": 4357,
      "##아지": 4358,
      "어두": 4359,
      "##밍": 4360,
      "않을까": 4361,
      "통한": 4362,
      "성적": 4363,
      "바닥": 4364,
      "경북": 4365,
      "보니까": 4366,
      "##때는": 4367,
      "위협": 4368,
      "##연구": 4369,
      "흔들": 4370,
      "향해": 4371,
      "홀": 4372,
      "너무나": 4373,
      "투입": 4374,
      "봄": 4375,
      "체험": 4376,
      "사회적": 4377,
      "전년": 4378,
      "##어날": 4379,
      "##부에": 4380,
      "대답": 4381,
      "##하니까": 4382,
      "사법": 4383,
      "##환경": 4384,
      "원칙": 4385,
      "##분들": 4386,
      "계열": 4387,
      "수업": 4388,
      "되었": 4389,
      "뭐냐": 4390,
      "공수": 4391,
      "8월": 4392,
      "##20": 4393,
      "##빙": 4394,
      "##히는": 4395,
      "드러나": 4396,
      "으면": 4397,
      "삼성전자": 4398,
      "파괴": 4399,
      "코미": 4400,
      "위원장": 4401,
      "##텐츠": 4402,
      "운전": 4403,
      "있는지": 4404,
      "몽": 4405,
      "프로제": 4406,
      "당신이": 4407,
      "##단이": 4408,
      "디자인": 4409,
      "개월": 4410,
      "##둥이": 4411,
      "금리": 4412,
      "##사와": 4413,
      "못해": 4414,
      "선언": 4415,
      "1월": 4416,
      "동료": 4417,
      "문죄": 4418,
      "##싫": 4419,
      "발행": 4420,
      "이번에": 4421,
      "##트가": 4422,
      "임대": 4423,
      "몸을": 4424,
      "소녀": 4425,
      "박정": 4426,
      "##하네요": 4427,
      "초기": 4428,
      "공주": 4429,
      "채용": 4430,
      "확실히": 4431,
      "재정": 4432,
      "관심이": 4433,
      "지정": 4434,
      "##주면": 4435,
      "필요가": 4436,
      "사전": 4437,
      "상황에서": 4438,
      "아니라고": 4439,
      "##으로부터": 4440,
      "##뜻": 4441,
      "똑같이": 4442,
      "##사건": 4443,
      "죽을": 4444,
      "말로": 4445,
      "##라가": 4446,
      "취급": 4447,
      "널": 4448,
      "엘": 4449,
      "디지": 4450,
      "보였": 4451,
      "인한": 4452,
      "제출": 4453,
      "미치": 4454,
      "##상은": 4455,
      "데뷔": 4456,
      "35": 4457,
      "##쳤다": 4458,
      "대전": 4459,
      "창업": 4460,
      "##수준": 4461,
      "드디어": 4462,
      "저녁": 4463,
      "##차를": 4464,
      "위안": 4465,
      "스마트폰": 4466,
      "남의": 4467,
      "선진": 4468,
      "##군이": 4469,
      "##되면서": 4470,
      "달성": 4471,
      "덕분에": 4472,
      "칠": 4473,
      "##리어": 4474,
      "##니스": 4475,
      "주가": 4476,
      "세대": 4477,
      "모르겠": 4478,
      "안돼": 4479,
      "하니": 4480,
      "##친구": 4481,
      "싹": 4482,
      "신의": 4483,
      "##ᅢᆼ크": 4484,
      "빠른": 4485,
      "##하도록": 4486,
      "딴": 4487,
      "토론": 4488,
      "묵": 4489,
      "##아치": 4490,
      "강제": 4491,
      "무리": 4492,
      "측면": 4493,
      "토착왜구": 4494,
      "것과": 4495,
      "같아": 4496,
      "##이의": 4497,
      "##받은": 4498,
      "##륭": 4499,
      "##거라": 4500,
      "낸": 4501,
      "된다는": 4502,
      "생각하고": 4503,
      "이미지": 4504,
      "##이드": 4505,
      "갔다": 4506,
      "등으로": 4507,
      "무식": 4508,
      "쿠키": 4509,
      "임금": 4510,
      "##짱": 4511,
      "##인듯": 4512,
      "##까지는": 4513,
      "심리": 4514,
      "##륙": 4515,
      "그것을": 4516,
      "작가님이": 4517,
      "않게": 4518,
      "물러": 4519,
      "##이었": 4520,
      "영화의": 4521,
      "불리": 4522,
      "버스": 4523,
      "##경기": 4524,
      "##시길": 4525,
      "##호가": 4526,
      "풀어": 4527,
      "정주행": 4528,
      "이탈": 4529,
      "출발": 4530,
      "사람도": 4531,
      "그림체": 4532,
      "스타일": 4533,
      "심판": 4534,
      "##트는": 4535,
      "##앗": 4536,
      "방안": 4537,
      "있었는데": 4538,
      "크리스": 4539,
      "##조선": 4540,
      "##ᆨ시": 4541,
      "제안": 4542,
      "들어오": 4543,
      "절반": 4544,
      "웃기": 4545,
      "리더": 4546,
      "족": 4547,
      "가고": 4548,
      "호텔": 4549,
      "더러운": 4550,
      "동원": 4551,
      "처음으로": 4552,
      "공유": 4553,
      "운용": 4554,
      "내용을": 4555,
      "휴대": 4556,
      "##홀": 4557,
      "태어나": 4558,
      "조용히": 4559,
      "친일파": 4560,
      "싶어": 4561,
      "정작": 4562,
      "획": 4563,
      "##케팅": 4564,
      "이란": 4565,
      "위해서는": 4566,
      "##률이": 4567,
      "##달라고": 4568,
      "과정에서": 4569,
      "페미": 4570,
      "말에": 4571,
      "이리": 4572,
      "##인으로": 4573,
      "서울대": 4574,
      "온갖": 4575,
      "가만히": 4576,
      "내리": 4577,
      "##자에": 4578,
      "받았": 4579,
      "유튜": 4580,
      "있을까": 4581,
      "##량이": 4582,
      "나선": 4583,
      "본인이": 4584,
      "바이러스": 4585,
      "하야": 4586,
      "원작": 4587,
      "##30": 4588,
      "##납": 4589,
      "에피": 4590,
      "사형": 4591,
      "애들이": 4592,
      "비율": 4593,
      "이름이": 4594,
      "없음": 4595,
      "##도시": 4596,
      "옹": 4597,
      "가수": 4598,
      "##ᆻ나": 4599,
      "들어서": 4600,
      "활성": 4601,
      "##콤": 4602,
      "뭉": 4603,
      "앉아": 4604,
      "실험": 4605,
      "##춤": 4606,
      "##인과": 4607,
      "일주": 4608,
      "울산": 4609,
      "도움이": 4610,
      "폭력": 4611,
      "먹는": 4612,
      "쉴": 4613,
      "무료": 4614,
      "객": 4615,
      "##것들이": 4616,
      "##했으면": 4617,
      "총리": 4618,
      "겸": 4619,
      "자극": 4620,
      "##잖": 4621,
      "지금도": 4622,
      "깨끄": 4623,
      "수많은": 4624,
      "남녀": 4625,
      "둘이": 4626,
      "##ᆻ음": 4627,
      "##베이": 4628,
      "이유로": 4629,
      "실망": 4630,
      "아닙니다": 4631,
      "##간의": 4632,
      "2월": 4633,
      "바랍니다": 4634,
      "##하러": 4635,
      "영원": 4636,
      "대상으로": 4637,
      "가까운": 4638,
      "긍정": 4639,
      "올라가": 4640,
      "11월": 4641,
      "##이도": 4642,
      "##쓴": 4643,
      "##름이": 4644,
      "악마": 4645,
      "전형": 4646,
      "##려나": 4647,
      "##면서도": 4648,
      "아냐": 4649,
      "사이에": 4650,
      "##한국": 4651,
      "행위": 4652,
      "브라": 4653,
      "고소": 4654,
      "베트남": 4655,
      "그것이": 4656,
      "눈이": 4657,
      "##칼": 4658,
      "금액": 4659,
      "##먹을": 4660,
      "아름다운": 4661,
      "폭발": 4662,
      "##있고": 4663,
      "너는": 4664,
      "##뇨": 4665,
      "##마저": 4666,
      "한국의": 4667,
      "택시": 4668,
      "##점은": 4669,
      "죠": 4670,
      "라면": 4671,
      "놈이": 4672,
      "##in": 4673,
      "지내": 4674,
      "반성": 4675,
      "##독교": 4676,
      "이정도": 4677,
      "곳이": 4678,
      "사회주의": 4679,
      "##상으로": 4680,
      "쫓": 4681,
      "검색": 4682,
      "##규모": 4683,
      "하던": 4684,
      "앨": 4685,
      "언니": 4686,
      "넘어가": 4687,
      "##버리": 4688,
      "균": 4689,
      "##잡고": 4690,
      "##바이": 4691,
      "캡": 4692,
      "##가족": 4693,
      "키워": 4694,
      "높아": 4695,
      "훌륭": 4696,
      "##바일": 4697,
      "##해지": 4698,
      "사귀": 4699,
      "도착": 4700,
      "예고": 4701,
      "흥미": 4702,
      "커피": 4703,
      "##사랑": 4704,
      "##시지": 4705,
      "하는게": 4706,
      "##찾": 4707,
      "##니아": 4708,
      "대해서는": 4709,
      "##길을": 4710,
      "경남": 4711,
      "가끔": 4712,
      "반도": 4713,
      "197": 4714,
      "미사일": 4715,
      "남은": 4716,
      "##하는건": 4717,
      "문학": 4718,
      "##하기로": 4719,
      "##관을": 4720,
      "방어": 4721,
      "나왔다": 4722,
      "들여": 4723,
      "매년": 4724,
      "영역": 4725,
      "##진짜": 4726,
      "미국의": 4727,
      "예방": 4728,
      "수십": 4729,
      "KT": 4730,
      "##들이다": 4731,
      "##덤": 4732,
      "대우": 4733,
      "숫": 4734,
      "2차": 4735,
      "적절": 4736,
      "소통": 4737,
      "이만": 4738,
      "보지": 4739,
      "##리로": 4740,
      "잘못된": 4741,
      "뜨거": 4742,
      "##되었": 4743,
      "챙겨": 4744,
      "##계가": 4745,
      "남자가": 4746,
      "##부모": 4747,
      "회원": 4748,
      "낮은": 4749,
      "##낙": 4750,
      "냄새": 4751,
      "내내": 4752,
      "##톡": 4753,
      "##으려고": 4754,
      "대가": 4755,
      "기레기": 4756,
      "매각": 4757,
      "무역": 4758,
      "##보내": 4759,
      "집에서": 4760,
      "모른다": 4761,
      "잡고": 4762,
      "간다": 4763,
      "법무부": 4764,
      "이상의": 4765,
      "주의": 4766,
      "모아": 4767,
      "한반": 4768,
      "삶을": 4769,
      "예를": 4770,
      "전용": 4771,
      "##나무": 4772,
      "##였는데": 4773,
      "이럴": 4774,
      "작용": 4775,
      "왠지": 4776,
      "마음에": 4777,
      "낭": 4778,
      "협상": 4779,
      "한국인": 4780,
      "극복": 4781,
      "흉": 4782,
      "비밀": 4783,
      "동의": 4784,
      "이들은": 4785,
      "##이에": 4786,
      "해야지": 4787,
      "##받아": 4788,
      "감옥": 4789,
      "##말을": 4790,
      "계산": 4791,
      "5년": 4792,
      "값": 4793,
      "일본의": 4794,
      "통해서": 4795,
      "##전에서": 4796,
      "##거래": 4797,
      "##경이": 4798,
      "시원": 4799,
      "뒤집": 4800,
      "들이": 4801,
      "인근": 4802,
      "순수": 4803,
      "중심으로": 4804,
      "말한다": 4805,
      "손해": 4806,
      "##껄": 4807,
      "모바일": 4808,
      "홍콩": 4809,
      "##시킬": 4810,
      "끝내": 4811,
      "협의": 4812,
      "컷": 4813,
      "정부의": 4814,
      "우한": 4815,
      "황교안": 4816,
      "##끈": 4817,
      "글을": 4818,
      "있으": 4819,
      "공수처": 4820,
      "후에": 4821,
      "##실을": 4822,
      "일본은": 4823,
      "집안": 4824,
      "##기사": 4825,
      "##조작": 4826,
      "나와서": 4827,
      "##속에": 4828,
      "##한건": 4829,
      "이중": 4830,
      "자리를": 4831,
      "평범": 4832,
      "찾아가": 4833,
      "테러": 4834,
      "##량을": 4835,
      "빙": 4836,
      "애플": 4837,
      "탁": 4838,
      "##랜": 4839,
      "언제나": 4840,
      "좋았": 4841,
      "있냐": 4842,
      "##쓰고": 4843,
      "허용": 4844,
      "트위": 4845,
      "집회": 4846,
      "##달러": 4847,
      "변호사": 4848,
      "##이팅": 4849,
      "길을": 4850,
      "가게": 4851,
      "##원으로": 4852,
      "만난": 4853,
      "편의": 4854,
      "##쩍": 4855,
      "##하는지": 4856,
      "세상에": 4857,
      "##건설": 4858,
      "방치": 4859,
      "어이": 4860,
      "2000": 4861,
      "구입": 4862,
      "##놓은": 4863,
      "##하겠다": 4864,
      "인데": 4865,
      "##롭게": 4866,
      "##있어": 4867,
      "몬": 4868,
      "점을": 4869,
      "##지마라": 4870,
      "나쁘": 4871,
      "화려": 4872,
      "상황을": 4873,
      "없네": 4874,
      "소중": 4875,
      "하는지": 4876,
      "스테": 4877,
      "프로젝트": 4878,
      "마케팅": 4879,
      "##바리": 4880,
      "축하": 4881,
      "##꽃": 4882,
      "종목": 4883,
      "마다": 4884,
      "씩": 4885,
      "##겁니다": 4886,
      "##보험": 4887,
      "개그": 4888,
      "##정보": 4889,
      "맞추": 4890,
      "뭐라": 4891,
      "그렇다고": 4892,
      "높이": 4893,
      "아닐": 4894,
      "프레": 4895,
      "주말": 4896,
      "세력": 4897,
      "밟": 4898,
      "##본다": 4899,
      "보상": 4900,
      "서울시": 4901,
      "##ᆯ링": 4902,
      "좋을": 4903,
      "추정": 4904,
      "##인가요": 4905,
      "부여": 4906,
      "없지": 4907,
      "가해": 4908,
      "강원": 4909,
      "소리를": 4910,
      "##그리": 4911,
      "##ᆷ마": 4912,
      "길이": 4913,
      "새벽": 4914,
      "인증": 4915,
      "사람들의": 4916,
      "##나와": 4917,
      "국민들은": 4918,
      "제2": 4919,
      "##가의": 4920,
      "##걸로": 4921,
      "우연": 4922,
      "##주택": 4923,
      "지들이": 4924,
      "##누리": 4925,
      "뉴욕": 4926,
      "먹을": 4927,
      "마지막에": 4928,
      "정신차": 4929,
      "매국": 4930,
      "목소": 4931,
      "화면": 4932,
      "보게": 4933,
      "떨어진": 4934,
      "전했다": 4935,
      "000": 4936,
      "정규": 4937,
      "##쪽으로": 4938,
      "말할": 4939,
      "명예": 4940,
      "연장": 4941,
      "##일부터": 4942,
      "##보단": 4943,
      "알아서": 4944,
      "낼": 4945,
      "장소": 4946,
      "##칸": 4947,
      "시위": 4948,
      "검은": 4949,
      "##라지": 4950,
      "여당": 4951,
      "##첨": 4952,
      "계획이다": 4953,
      "##쥐": 4954,
      "데려": 4955,
      "##댓글": 4956,
      "##비는": 4957,
      "##세기": 4958,
      "##하시는": 4959,
      "출전": 4960,
      "##됩니다": 4961,
      "가야": 4962,
      "카페": 4963,
      "##들로": 4964,
      "36": 4965,
      "연락": 4966,
      "별점": 4967,
      "빡": 4968,
      "건축": 4969,
      "##똑": 4970,
      "받아들": 4971,
      "거기에": 4972,
      "쓰러": 4973,
      "상대로": 4974,
      "유시민": 4975,
      "##료를": 4976,
      "##나고": 4977,
      "생각한다": 4978,
      "교사": 4979,
      "##고를": 4980,
      "가능하다": 4981,
      "봐라": 4982,
      "집행": 4983,
      "밀어": 4984,
      "정신병": 4985,
      "51": 4986,
      "정은": 4987,
      "옆에": 4988,
      "##이로": 4989,
      "##번에": 4990,
      "##적이다": 4991,
      "간단": 4992,
      "엘리": 4993,
      "부인": 4994,
      "누리": 4995,
      "##길래": 4996,
      "한국당": 4997,
      "##on": 4998,
      "신기": 4999,
      "##솔": 5000,
      "##아는": 5001,
      "수정": 5002,
      "디지털": 5003,
      "입고": 5004,
      "없었": 5005,
      "짝": 5006,
      "연습": 5007,
      "억울": 5008,
      "원인": 5009,
      "외부": 5010,
      "##미가": 5011,
      "기다리": 5012,
      "##거면": 5013,
      "예측": 5014,
      "이성": 5015,
      "스티": 5016,
      "는지": 5017,
      "폰": 5018,
      "생존": 5019,
      "전날": 5020,
      "나오면": 5021,
      "수용": 5022,
      "##고는": 5023,
      "삐": 5024,
      "야구": 5025,
      "##몇": 5026,
      "부부": 5027,
      "왜이": 5028,
      "홈페이": 5029,
      "컬": 5030,
      "폐지": 5031,
      "##쳐서": 5032,
      "헌법": 5033,
      "소송": 5034,
      "##군의": 5035,
      "정치적": 5036,
      "때마다": 5037,
      "태극": 5038,
      "없으면": 5039,
      "영웅": 5040,
      "명의": 5041,
      "##픔": 5042,
      "상징": 5043,
      "보이지": 5044,
      "말이다": 5045,
      "채권": 5046,
      "##진은": 5047,
      "무서운": 5048,
      "사랑을": 5049,
      "##기와": 5050,
      "##릿": 5051,
      "보자": 5052,
      "틀딱": 5053,
      "성폭": 5054,
      "위반": 5055,
      "##흡": 5056,
      "현상": 5057,
      "무르": 5058,
      "말한": 5059,
      "설명했다": 5060,
      "적어도": 5061,
      "##방에": 5062,
      "##렉": 5063,
      "정체": 5064,
      "반일": 5065,
      "이겨": 5066,
      "묶": 5067,
      "눌러": 5068,
      "뻔뻔": 5069,
      "##위해": 5070,
      "할아버": 5071,
      "만한": 5072,
      "요소": 5073,
      "##겟": 5074,
      "생각합니다": 5075,
      "설마": 5076,
      "교체": 5077,
      "패션": 5078,
      "1위": 5079,
      "나오고": 5080,
      "##웠다": 5081,
      "이들": 5082,
      "##영업": 5083,
      "이승": 5084,
      "뭐야": 5085,
      "앤": 5086,
      "##따라": 5087,
      "##했으며": 5088,
      "효율": 5089,
      "##플레이": 5090,
      "가까이": 5091,
      "피부": 5092,
      "배치": 5093,
      "##시를": 5094,
      "##되기": 5095,
      "연금": 5096,
      "기여": 5097,
      "자원": 5098,
      "공산주의": 5099,
      "통제": 5100,
      "헤어": 5101,
      "돌아오": 5102,
      "결코": 5103,
      "##자도": 5104,
      "작성": 5105,
      "45": 5106,
      "기독교": 5107,
      "한나라": 5108,
      "쌀": 5109,
      "##친다": 5110,
      "나경원": 5111,
      "##셜": 5112,
      "꾸준히": 5113,
      "겨우": 5114,
      "수호": 5115,
      "##금융": 5116,
      "소년": 5117,
      "적은": 5118,
      "털어": 5119,
      "##금지": 5120,
      "##니깐": 5121,
      "의한": 5122,
      "탄생": 5123,
      "최순": 5124,
      "##스와": 5125,
      "재밌게": 5126,
      "것이었다": 5127,
      "내세": 5128,
      "집값": 5129,
      "##점으로": 5130,
      "##격을": 5131,
      "개소리": 5132,
      "##래도": 5133,
      "##대학": 5134,
      "##로남": 5135,
      "체결": 5136,
      "제1": 5137,
      "##거리는": 5138,
      "조국이": 5139,
      "역겨": 5140,
      "있는거": 5141,
      "총장": 5142,
      "아니야": 5143,
      "몰아": 5144,
      "비리": 5145,
      "활약": 5146,
      "공산당": 5147,
      "##진을": 5148,
      "아저": 5149,
      "##유의": 5150,
      "때려": 5151,
      "최소한": 5152,
      "기울": 5153,
      "그들이": 5154,
      "##용이": 5155,
      "제거": 5156,
      "설계": 5157,
      "칭찬": 5158,
      "아동": 5159,
      "##쳤": 5160,
      "공모": 5161,
      "2015년": 5162,
      "다면": 5163,
      "##바닥": 5164,
      "##드의": 5165,
      "##서가": 5166,
      "쏟아": 5167,
      "##로남불": 5168,
      "##이기도": 5169,
      "대통령은": 5170,
      "##버린": 5171,
      "##봄": 5172,
      "끈": 5173,
      "나아가": 5174,
      "다루": 5175,
      "##an": 5176,
      "통화": 5177,
      "##어야지": 5178,
      "##경을": 5179,
      "##ᆺ가": 5180,
      "전세계": 5181,
      "사항": 5182,
      "모여": 5183,
      "##륜": 5184,
      "##딸": 5185,
      "감사합니다": 5186,
      "##일까지": 5187,
      "이혼": 5188,
      "상장": 5189,
      "주문": 5190,
      "SBS": 5191,
      "##땐": 5192,
      "멸": 5193,
      "##수에": 5194,
      "##팬": 5195,
      "##개가": 5196,
      "자치": 5197,
      "손가락": 5198,
      "할인": 5199,
      "정치인": 5200,
      "한다면": 5201,
      "대처": 5202,
      "도덕": 5203,
      "##대가리": 5204,
      "##뚱": 5205,
      "이른": 5206,
      "양심": 5207,
      "강력한": 5208,
      "방역": 5209,
      "명령": 5210,
      "봉사": 5211,
      "진단": 5212,
      "이나라": 5213,
      "##힐": 5214,
      "##님을": 5215,
      "죽여": 5216,
      "아무런": 5217,
      "언어": 5218,
      "의도": 5219,
      "당신은": 5220,
      "학습": 5221,
      "감안": 5222,
      "수준이": 5223,
      "##화된": 5224,
      "느낄": 5225,
      "예비": 5226,
      "불매": 5227,
      "##얘": 5228,
      "붕": 5229,
      "인재": 5230,
      "보건": 5231,
      "창조": 5232,
      "박정희": 5233,
      "##자에게": 5234,
      "안내": 5235,
      "기계": 5236,
      "합리": 5237,
      "이론": 5238,
      "클럽": 5239,
      "런": 5240,
      "섞": 5241,
      "##메이션": 5242,
      "##데이": 5243,
      "32": 5244,
      "뼈": 5245,
      "선배": 5246,
      "##기간": 5247,
      "카메라": 5248,
      "실천": 5249,
      "우리나": 5250,
      "##없어": 5251,
      "비상": 5252,
      "처음부터": 5253,
      "##할까": 5254,
      "##담을": 5255,
      "녀": 5256,
      "어깨": 5257,
      "모두가": 5258,
      "잠깐": 5259,
      "##먹은": 5260,
      "밑에": 5261,
      "수학": 5262,
      "##벤": 5263,
      "철학": 5264,
      "##대회": 5265,
      "섭": 5266,
      "2016년": 5267,
      "속도": 5268,
      "일부러": 5269,
      "듯한": 5270,
      "상위": 5271,
      "않나": 5272,
      "##짜리": 5273,
      "이것은": 5274,
      "물리": 5275,
      "여주": 5276,
      "분명히": 5277,
      "작품이": 5278,
      "##쟁이": 5279,
      "##게요": 5280,
      "갓": 5281,
      "##분을": 5282,
      "김정": 5283,
      "##보다도": 5284,
      "이라": 5285,
      "더이상": 5286,
      "앨범": 5287,
      "로보": 5288,
      "인력": 5289,
      "지루": 5290,
      "##단다": 5291,
      "##등학생": 5292,
      "비정": 5293,
      "원수": 5294,
      "##만은": 5295,
      "체계": 5296,
      "주사": 5297,
      "##호를": 5298,
      "아니지만": 5299,
      "이슈": 5300,
      "알려졌": 5301,
      "간첩": 5302,
      "##받을": 5303,
      "혼란": 5304,
      "뿐이다": 5305,
      "콘텐츠": 5306,
      "##럽게": 5307,
      "##항공": 5308,
      "이용해": 5309,
      "##ᆷ이나": 5310,
      "제정": 5311,
      "##듭": 5312,
      "##ᆻ으며": 5313,
      "##차가": 5314,
      "가라": 5315,
      "얼굴을": 5316,
      "들었다": 5317,
      "콩": 5318,
      "특성": 5319,
      "대가리": 5320,
      "##딘": 5321,
      "스태": 5322,
      "왜냐": 5323,
      "##싶은": 5324,
      "고백": 5325,
      "심사": 5326,
      "광화": 5327,
      "힘내": 5328,
      "##구조": 5329,
      "애국": 5330,
      "너도": 5331,
      "웃음": 5332,
      "관련된": 5333,
      "안좋": 5334,
      "사람들을": 5335,
      "다를": 5336,
      "##ᆷ은": 5337,
      "없지만": 5338,
      "어요": 5339,
      "##ᆸ은": 5340,
      "##소득": 5341,
      "대부분의": 5342,
      "이달": 5343,
      "##주시": 5344,
      "##ᆺ어": 5345,
      "##룩": 5346,
      "##뽀": 5347,
      "유사": 5348,
      "##장과": 5349,
      "##향이": 5350,
      "차이가": 5351,
      "필요하다": 5352,
      "##파이": 5353,
      "##화의": 5354,
      "##단의": 5355,
      "모른": 5356,
      "경우는": 5357,
      "반도체": 5358,
      "화가": 5359,
      "식으로": 5360,
      "꼼": 5361,
      "##핀": 5362,
      "##치게": 5363,
      "##19": 5364,
      "베댓이": 5365,
      "소름": 5366,
      "아이테": 5367,
      "에피소": 5368,
      "보여주는": 5369,
      "백신": 5370,
      "##아니라": 5371,
      "여유": 5372,
      "버티": 5373,
      "미세먼지": 5374,
      "정도의": 5375,
      "판사": 5376,
      "자가": 5377,
      "##종의": 5378,
      "입을": 5379,
      "미국이": 5380,
      "상식": 5381,
      "유튜브": 5382,
      "##력으로": 5383,
      "수능": 5384,
      "오픈": 5385,
      "하냐": 5386,
      "##모리": 5387,
      "기생": 5388,
      "깊은": 5389,
      "남겨": 5390,
      "##범죄": 5391,
      "##당히": 5392,
      "돋": 5393,
      "##성도": 5394,
      "청문": 5395,
      "##치지": 5396,
      "노동자": 5397,
      "##석은": 5398,
      "통계": 5399,
      "참고로": 5400,
      "옮겨": 5401,
      "이외": 5402,
      "드러내": 5403,
      "니들은": 5404,
      "채널": 5405,
      "느낀": 5406,
      "##성애": 5407,
      "놔": 5408,
      "소환": 5409,
      "쇼핑": 5410,
      "때도": 5411,
      "살려": 5412,
      "##상태": 5413,
      "진지": 5414,
      "오로": 5415,
      "인류": 5416,
      "##방을": 5417,
      "뚫": 5418,
      "못한다": 5419,
      "##야말로": 5420,
      "##는거다": 5421,
      "지수": 5422,
      "라인": 5423,
      "피해를": 5424,
      "의지": 5425,
      "많은데": 5426,
      "팔아": 5427,
      "단어": 5428,
      "복귀": 5429,
      "공항": 5430,
      "드립": 5431,
      "떨어지": 5432,
      "##제는": 5433,
      "전했": 5434,
      "##일은": 5435,
      "아니지": 5436,
      "사실은": 5437,
      "걸어": 5438,
      "##떨어": 5439,
      "##평가": 5440,
      "사이트": 5441,
      "다리": 5442,
      "고위": 5443,
      "유료": 5444,
      "세상을": 5445,
      "한데": 5446,
      "미술": 5447,
      "##가면": 5448,
      "##복을": 5449,
      "자전": 5450,
      "근본": 5451,
      "경우에는": 5452,
      "인간들": 5453,
      "##스에": 5454,
      "정보를": 5455,
      "오해": 5456,
      "문빠": 5457,
      "오지": 5458,
      "집권": 5459,
      "당국": 5460,
      "##돌아": 5461,
      "등등": 5462,
      "무한": 5463,
      "갔": 5464,
      "##기지": 5465,
      "펴": 5466,
      "떨어져": 5467,
      "경우도": 5468,
      "등급": 5469,
      "배워": 5470,
      "##이라니": 5471,
      "##년이": 5472,
      "2017년": 5473,
      "압박": 5474,
      "스위": 5475,
      "##있네": 5476,
      "##서관": 5477,
      "아닌가요": 5478,
      "출마": 5479,
      "착각": 5480,
      "키우": 5481,
      "##워크": 5482,
      "##주지": 5483,
      "기소": 5484,
      "놈들": 5485,
      "영혼": 5486,
      "기타": 5487,
      "빨간": 5488,
      "대놓고": 5489,
      "북한이": 5490,
      "##힘": 5491,
      "##동생": 5492,
      "소식": 5493,
      "끝난": 5494,
      "부디": 5495,
      "아이가": 5496,
      "요리": 5497,
      "취소": 5498,
      "지옥": 5499,
      "장비": 5500,
      "##화점": 5501,
      "이다": 5502,
      "셔": 5503,
      "방해": 5504,
      "##거냐": 5505,
      "감독은": 5506,
      "한테": 5507,
      "##헬": 5508,
      "##똥": 5509,
      "갈수록": 5510,
      "33": 5511,
      "아르": 5512,
      "단순히": 5513,
      "##든가": 5514,
      "뒤로": 5515,
      "식품": 5516,
      "##배우": 5517,
      "부분이": 5518,
      "갖추": 5519,
      "괜히": 5520,
      "##TV": 5521,
      "이지": 5522,
      "꿀": 5523,
      "##자체": 5524,
      "##주에": 5525,
      "##호는": 5526,
      "저게": 5527,
      "커플": 5528,
      "전남": 5529,
      "##때마다": 5530,
      "꺼내": 5531,
      "모르겠다": 5532,
      "##별로": 5533,
      "##하셨": 5534,
      "한국은": 5535,
      "##었어요": 5536,
      "종북": 5537,
      "최대한": 5538,
      "짱깨": 5539,
      "클라": 5540,
      "지금이": 5541,
      "종류": 5542,
      "##던지": 5543,
      "물고": 5544,
      "자림이": 5545,
      "196": 5546,
      "씨는": 5547,
      "팩트": 5548,
      "안철": 5549,
      "괴롭": 5550,
      "##되는데": 5551,
      "뜬": 5552,
      "실질": 5553,
      "추구": 5554,
      "##여자": 5555,
      "수수": 5556,
      "복잡": 5557,
      "손에": 5558,
      "##권이": 5559,
      "2014년": 5560,
      "38": 5561,
      "설득": 5562,
      "##앉": 5563,
      "##닫": 5564,
      "걸려": 5565,
      "여부": 5566,
      "생각하면": 5567,
      "법인": 5568,
      "점에서": 5569,
      "책을": 5570,
      "##정에": 5571,
      "##화에서": 5572,
      "모집": 5573,
      "##카드": 5574,
      "##주로": 5575,
      "##컴": 5576,
      "34": 5577,
      "##애들": 5578,
      "증명": 5579,
      "그리스": 5580,
      "체육": 5581,
      "엄마가": 5582,
      "분리": 5583,
      "본부": 5584,
      "##수수": 5585,
      "##미터": 5586,
      "몰려": 5587,
      "##곳에": 5588,
      "후회": 5589,
      "흰": 5590,
      "동아": 5591,
      "내고": 5592,
      "얘기를": 5593,
      "##리게": 5594,
      "관람": 5595,
      "작가의": 5596,
      "##명으로": 5597,
      "실현": 5598,
      "개입": 5599,
      "뭔지": 5600,
      "##더만": 5601,
      "##한번": 5602,
      "##장면": 5603,
      "미군": 5604,
      "사실이": 5605,
      "2018년": 5606,
      "것이라는": 5607,
      "그렇고": 5608,
      "선생님": 5609,
      "대학생": 5610,
      "##해줘": 5611,
      "오늘도": 5612,
      "했다고": 5613,
      "고등학교": 5614,
      "##동이": 5615,
      "##여행": 5616,
      "##ᆺ고": 5617,
      "##달리": 5618,
      "현금": 5619,
      "멋진": 5620,
      "나갈": 5621,
      "##슴": 5622,
      "##ᆸ이": 5623,
      "##실이": 5624,
      "##괄": 5625,
      "원내": 5626,
      "중간에": 5627,
      "있었고": 5628,
      "누구나": 5629,
      "##아도": 5630,
      "##질러": 5631,
      "다ᄅ": 5632,
      "##연이": 5633,
      "장르": 5634,
      "때까지": 5635,
      "김영": 5636,
      "체제": 5637,
      "냐": 5638,
      "혐": 5639,
      "뛰어난": 5640,
      "투쟁": 5641,
      "##자산": 5642,
      "##흘": 5643,
      "전면": 5644,
      "생각은": 5645,
      "국민은": 5646,
      "초딩": 5647,
      "가을": 5648,
      "착한": 5649,
      "##되서": 5650,
      "스킬": 5651,
      "99": 5652,
      "동기": 5653,
      "기회를": 5654,
      "했고": 5655,
      "어릴": 5656,
      "##정치": 5657,
      "뜯": 5658,
      "##당에": 5659,
      "이야기가": 5660,
      "어려워": 5661,
      "##구로": 5662,
      "최강": 5663,
      "멀리": 5664,
      "##히고": 5665,
      "수치": 5666,
      "##임금": 5667,
      "이민": 5668,
      "##게임": 5669,
      "##빌": 5670,
      "발휘": 5671,
      "셋": 5672,
      "둘째": 5673,
      "겁나": 5674,
      "고발": 5675,
      "좋지": 5676,
      "고향": 5677,
      "##셔야": 5678,
      "그다": 5679,
      "##져라": 5680,
      "이내": 5681,
      "애니메이션": 5682,
      "바란다": 5683,
      "내로남불": 5684,
      "##전의": 5685,
      "##졸": 5686,
      "##멘": 5687,
      "##닉": 5688,
      "##노총": 5689,
      "거듭": 5690,
      "##븐": 5691,
      "지상": 5692,
      "뿐만": 5693,
      "##리스트": 5694,
      "가량": 5695,
      "빠르": 5696,
      "##당을": 5697,
      "마주": 5698,
      "##였고": 5699,
      "이런거": 5700,
      "겉": 5701,
      "##상황": 5702,
      "상담": 5703,
      "바른": 5704,
      "수원": 5705,
      "##터리": 5706,
      "1인": 5707,
      "##계의": 5708,
      "조선족": 5709,
      "폴": 5710,
      "창출": 5711,
      "인공": 5712,
      "응답": 5713,
      "배달": 5714,
      "마침": 5715,
      "입학": 5716,
      "패배": 5717,
      "청원": 5718,
      "##해주는": 5719,
      "일찍": 5720,
      "##힌다": 5721,
      "##부대": 5722,
      "한화": 5723,
      "들어와": 5724,
      "주인공이": 5725,
      "방사": 5726,
      "반발": 5727,
      "##쿄": 5728,
      "중이다": 5729,
      "확장": 5730,
      "##회에": 5731,
      "모를": 5732,
      "성인": 5733,
      "숲": 5734,
      "##키는": 5735,
      "둘다": 5736,
      "##증을": 5737,
      "검찰개혁": 5738,
      "능력이": 5739,
      "교과": 5740,
      "발사": 5741,
      "노출": 5742,
      "##열이": 5743,
      "##트의": 5744,
      "그에": 5745,
      "돌파": 5746,
      "차단": 5747,
      "안에서": 5748,
      "법을": 5749,
      "시나": 5750,
      "##뮤니": 5751,
      "KB": 5752,
      "진입": 5753,
      "자존": 5754,
      "유명한": 5755,
      "##점에서": 5756,
      "법률": 5757,
      "##ᆻ을때": 5758,
      "##올라": 5759,
      "##고가": 5760,
      "##상도": 5761,
      "월드컵": 5762,
      "##거임": 5763,
      "5000": 5764,
      "##구는": 5765,
      "##하지말고": 5766,
      "협박": 5767,
      "맞고": 5768,
      "살짝": 5769,
      "##형을": 5770,
      "기준으로": 5771,
      "봅니다": 5772,
      "얼굴이": 5773,
      "##시절": 5774,
      "상황에": 5775,
      "이것이": 5776,
      "중국에": 5777,
      "드리": 5778,
      "아시": 5779,
      "고급": 5780,
      "##펀드": 5781,
      "데리고": 5782,
      "거기서": 5783,
      "고정": 5784,
      "전세": 5785,
      "자전거": 5786,
      "마리": 5787,
      "공천": 5788,
      "탈출": 5789,
      "대기": 5790,
      "직후": 5791,
      "이탈리아": 5792,
      "말하고": 5793,
      "지하철": 5794,
      "부활": 5795,
      "분들": 5796,
      "필수": 5797,
      "미디어": 5798,
      "##릉": 5799,
      "##잉": 5800,
      "##드립니다": 5801,
      "대다": 5802,
      "##이든": 5803,
      "자영업": 5804,
      "주지": 5805,
      "중인": 5806,
      "하였다": 5807,
      "동시": 5808,
      "지시": 5809,
      "넘는": 5810,
      "##분기": 5811,
      "감독의": 5812,
      "능력을": 5813,
      "걸쳐": 5814,
      "배신": 5815,
      "박사": 5816,
      "되게": 5817,
      "끝에": 5818,
      "##하긴": 5819,
      "보이고": 5820,
      "두산": 5821,
      "##정의": 5822,
      "실력": 5823,
      "##ar": 5824,
      "소리가": 5825,
      "그날": 5826,
      "##카오": 5827,
      "##었다는": 5828,
      "처음이": 5829,
      "받아들이": 5830,
      "##ᆻ네요": 5831,
      "낫": 5832,
      "비례": 5833,
      "##나면": 5834,
      "##현이": 5835,
      "개판": 5836,
      "##동을": 5837,
      "성능": 5838,
      "인가": 5839,
      "알았는데": 5840,
      "넘어서": 5841,
      "할수": 5842,
      "링": 5843,
      "존경": 5844,
      "돕": 5845,
      "##사람들": 5846,
      "시작한": 5847,
      "##비에": 5848,
      "치고": 5849,
      "나타났다": 5850,
      "부모님": 5851,
      "2012년": 5852,
      "국토": 5853,
      "마찬가지로": 5854,
      "윤석열": 5855,
      "옹호": 5856,
      "사람들에게": 5857,
      "죽이": 5858,
      "뽑아": 5859,
      "것인가": 5860,
      "들어간": 5861,
      "##해주세요": 5862,
      "수석": 5863,
      "일본에": 5864,
      "기사는": 5865,
      "연간": 5866,
      "여야": 5867,
      "멘": 5868,
      "##담이": 5869,
      "##단은": 5870,
      "삶의": 5871,
      "사용하는": 5872,
      "소방": 5873,
      "절차": 5874,
      "3일": 5875,
      "크로": 5876,
      "##보지": 5877,
      "지휘": 5878,
      "대결": 5879,
      "보조": 5880,
      "방법을": 5881,
      "무릎": 5882,
      "반대로": 5883,
      "받지": 5884,
      "얻어": 5885,
      "문을": 5886,
      "자는": 5887,
      "매수": 5888,
      "할지": 5889,
      "##었나": 5890,
      "가로": 5891,
      "감성": 5892,
      "##ᆷ피언": 5893,
      "내는": 5894,
      "노예": 5895,
      "##뿐만": 5896,
      "부상": 5897,
      "책임을": 5898,
      "분류": 5899,
      "재난": 5900,
      "1만": 5901,
      "2013년": 5902,
      "다섯": 5903,
      "##드려": 5904,
      "예능": 5905,
      "평등": 5906,
      "있겠": 5907,
      "##다시": 5908,
      "도움을": 5909,
      "근처": 5910,
      "상반기": 5911,
      "철저히": 5912,
      "##으려": 5913,
      "그러고": 5914,
      "##슬람": 5915,
      "##아님": 5916,
      "##았고": 5917,
      "거다": 5918,
      "##형이": 5919,
      "##돌이": 5920,
      "검찰이": 5921,
      "##보이": 5922,
      "##바ᄁ": 5923,
      "찬성": 5924,
      "하세요": 5925,
      "곳에": 5926,
      "동양": 5927,
      "상호": 5928,
      "##NS": 5929,
      "서서": 5930,
      "##제의": 5931,
      "고개를": 5932,
      "머물": 5933,
      "##셨다": 5934,
      "##긋": 5935,
      "##ᅳᆺ": 5936,
      "단독": 5937,
      "순위": 5938,
      "스피": 5939,
      "##적으로는": 5940,
      "유도": 5941,
      "답변": 5942,
      "##회는": 5943,
      "해소": 5944,
      "전력": 5945,
      "이딴": 5946,
      "##인들은": 5947,
      "로맨": 5948,
      "몸이": 5949,
      "새누리": 5950,
      "작가가": 5951,
      "중에서": 5952,
      "법원": 5953,
      "물가": 5954,
      "분이": 5955,
      "높다": 5956,
      "##ᆯ리티": 5957,
      "재무": 5958,
      "한반도": 5959,
      "##렇게": 5960,
      "##아아": 5961,
      "##ᆻ는지": 5962,
      "건너": 5963,
      "집을": 5964,
      "청구": 5965,
      "##럴": 5966,
      "활동을": 5967,
      "투기": 5968,
      "사랑하는": 5969,
      "##되며": 5970,
      "국무": 5971,
      "분들이": 5972,
      "##우드": 5973,
      "세종": 5974,
      "##너무": 5975,
      "결제": 5976,
      "좋고": 5977,
      "생각나": 5978,
      "결과를": 5979,
      "##조가": 5980,
      "인민": 5981,
      "죄송": 5982,
      "##로를": 5983,
      "##픽": 5984,
      "김대": 5985,
      "가난": 5986,
      "##는거냐": 5987,
      "언젠": 5988,
      "씹": 5989,
      "목숨": 5990,
      "남한": 5991,
      "플랫": 5992,
      "##제품": 5993,
      "투명": 5994,
      "##or": 5995,
      "당황": 5996,
      "##스럽다": 5997,
      "머리를": 5998,
      "나타났": 5999,
      "##om": 6000,
      "##거고": 6001,
      "의미를": 6002,
      "예쁘": 6003,
      "화학": 6004,
      "놈들이": 6005,
      "화이팅": 6006,
      "##치면": 6007,
      "기록했다": 6008,
      "신체": 6009,
      "##비아": 6010,
      "덩": 6011,
      "마약": 6012,
      "일이다": 6013,
      "조선일보": 6014,
      "##당의": 6015,
      "몰입": 6016,
      "2010년": 6017,
      "##전은": 6018,
      "매장": 6019,
      "셈": 6020,
      "빼고": 6021,
      "표시": 6022,
      "아울": 6023,
      "##기엔": 6024,
      "실업": 6025,
      "좃": 6026,
      "중국의": 6027,
      "네트": 6028,
      "늘어": 6029,
      "##쪽에": 6030,
      "정확히": 6031,
      "됨": 6032,
      "##쇠": 6033,
      "해요": 6034,
      "##역을": 6035,
      "잉": 6036,
      "소화": 6037,
      "거예요": 6038,
      "짧은": 6039,
      "맞지": 6040,
      "##목을": 6041,
      "솔로": 6042,
      "##수사": 6043,
      "##덴": 6044,
      "같네요": 6045,
      "빠진": 6046,
      "학원": 6047,
      "앞두고": 6048,
      "아우": 6049,
      "##리라": 6050,
      "##봤다": 6051,
      "##위의": 6052,
      "나라의": 6053,
      "찢": 6054,
      "파워": 6055,
      "##음에": 6056,
      "##회장": 6057,
      "##치기": 6058,
      "##래곤": 6059,
      "때가": 6060,
      "도쿄": 6061,
      "웬": 6062,
      "광화문": 6063,
      "비롯한": 6064,
      "다니는": 6065,
      "머리가": 6066,
      "한정": 6067,
      "방침": 6068,
      "##럽다": 6069,
      "한국에": 6070,
      "대한민국의": 6071,
      "알려졌다": 6072,
      "햇": 6073,
      "2019년": 6074,
      "주세요": 6075,
      "국립": 6076,
      "##회가": 6077,
      "비록": 6078,
      "##모습": 6079,
      "사업을": 6080,
      "나오지": 6081,
      "##르면": 6082,
      "##성장": 6083,
      "북한에": 6084,
      "감독이": 6085,
      "##영은": 6086,
      "##미는": 6087,
      "합격": 6088,
      "커뮤니": 6089,
      "추억": 6090,
      "앙": 6091,
      "몇몇": 6092,
      "신선": 6093,
      "배려": 6094,
      "마세요": 6095,
      "비싸": 6096,
      "넘겨": 6097,
      "텔레": 6098,
      "##뜩": 6099,
      "공통": 6100,
      "400": 6101,
      "##듀": 6102,
      "파이": 6103,
      "이자": 6104,
      "##여야": 6105,
      "부대": 6106,
      "열어": 6107,
      "문재인은": 6108,
      "##공사": 6109,
      "없으니": 6110,
      "한심한": 6111,
      "기다려": 6112,
      "##의식": 6113,
      "설레": 6114,
      "점이": 6115,
      "편집": 6116,
      "##학과": 6117,
      "익숙": 6118,
      "##름을": 6119,
      "관계를": 6120,
      "양아치": 6121,
      "시선": 6122,
      "##스런": 6123,
      "했을": 6124,
      "마시": 6125,
      "도둑": 6126,
      "넥": 6127,
      "##직원": 6128,
      "전두": 6129,
      "##ᅪᆨ": 6130,
      "않습니다": 6131,
      "들은": 6132,
      "현대차": 6133,
      "것이고": 6134,
      "많고": 6135,
      "회담": 6136,
      "##떼": 6137,
      "##군은": 6138,
      "게이": 6139,
      "아이를": 6140,
      "내용은": 6141,
      "가리": 6142,
      "네가": 6143,
      "바탕으로": 6144,
      "바이오": 6145,
      "끌고": 6146,
      "##함으로써": 6147,
      "위안부": 6148,
      "1차": 6149,
      "연계": 6150,
      "압도": 6151,
      "빠르게": 6152,
      "워낙": 6153,
      "뮤지": 6154,
      "전설": 6155,
      "보인": 6156,
      "자리에": 6157,
      "기사를": 6158,
      "일어난": 6159,
      "우린": 6160,
      "##력과": 6161,
      "쇠": 6162,
      "하나가": 6163,
      "것들": 6164,
      "어야": 6165,
      "그와": 6166,
      "했으나": 6167,
      "틈": 6168,
      "장사": 6169,
      "좀비": 6170,
      "올린": 6171,
      "##구리": 6172,
      "다르게": 6173,
      "보일": 6174,
      "입주": 6175,
      "1억": 6176,
      "어리": 6177,
      "##ᆻ든": 6178,
      "##준이": 6179,
      "아들이": 6180,
      "무거": 6181,
      "찾는": 6182,
      "2018": 6183,
      "지금의": 6184,
      "자유한국": 6185,
      "대표는": 6186,
      "죄다": 6187,
      "중국이": 6188,
      "공약": 6189,
      "##떡": 6190,
      "자율": 6191,
      "동영": 6192,
      "이길": 6193,
      "강해": 6194,
      "제재": 6195,
      "##했으나": 6196,
      "이래서": 6197,
      "바라보": 6198,
      "일도": 6199,
      "대단한": 6200,
      "넣어": 6201,
      "유일한": 6202,
      "##놈들이": 6203,
      "수백": 6204,
      "한미": 6205,
      "변신": 6206,
      "##법이": 6207,
      "출산": 6208,
      "곁": 6209,
      "셀": 6210,
      "그런거": 6211,
      "깜짝": 6212,
      "상대방": 6213,
      "김성": 6214,
      "수비": 6215,
      "놀이": 6216,
      "##판에": 6217,
      "##실에서": 6218,
      "형사": 6219,
      "경고": 6220,
      "원전": 6221,
      "임시": 6222,
      "특별한": 6223,
      "맞다": 6224,
      "누군가": 6225,
      "투자자": 6226,
      "##껴": 6227,
      "##연을": 6228,
      "##사람은": 6229,
      "부채": 6230,
      "다름": 6231,
      "실수": 6232,
      "##버스": 6233,
      "부자": 6234,
      "덤": 6235,
      "취임": 6236,
      "##하겠다고": 6237,
      "##념이": 6238,
      "아웃": 6239,
      "거죠": 6240,
      "##계획": 6241,
      "대법": 6242,
      "의미가": 6243,
      "##겠어": 6244,
      "행동을": 6245,
      "기가": 6246,
      "##서에": 6247,
      "거주": 6248,
      "##마가": 6249,
      "한명": 6250,
      "여자는": 6251,
      "자빠": 6252,
      "하나로": 6253,
      "횡": 6254,
      "챔피언": 6255,
      "홈페이지": 6256,
      "고구": 6257,
      "##프라": 6258,
      "##었어": 6259,
      "정기": 6260,
      "##ᆫ다고": 6261,
      "시킨": 6262,
      "##션을": 6263,
      "들려": 6264,
      "아이들이": 6265,
      "효과를": 6266,
      "##작가님": 6267,
      "##남이": 6268,
      "##분의": 6269,
      "낯": 6270,
      "고속": 6271,
      "이처럼": 6272,
      "##드라마": 6273,
      "37": 6274,
      "우파": 6275,
      "살해": 6276,
      "##버리고": 6277,
      "##나다": 6278,
      "귀신": 6279,
      "##으신": 6280,
      "리얼": 6281,
      "##감독": 6282,
      "##악한": 6283,
      "오랜만에": 6284,
      "1일": 6285,
      "그래야": 6286,
      "안가": 6287,
      "물질": 6288,
      "##팡": 6289,
      "##스러워": 6290,
      "##국을": 6291,
      "융": 6292,
      "##에게도": 6293,
      "한두": 6294,
      "##쩡": 6295,
      "완료": 6296,
      "벨": 6297,
      "##무를": 6298,
      "예전에": 6299,
      "결승": 6300,
      "콜": 6301,
      "매국노": 6302,
      "칸": 6303,
      "하다가": 6304,
      "만들었다": 6305,
      "갤": 6306,
      "##ᆻ으니": 6307,
      "##시의": 6308,
      "늘어난": 6309,
      "초대": 6310,
      "가짜뉴스": 6311,
      "몰라도": 6312,
      "뭐라고": 6313,
      "##할듯": 6314,
      "주관": 6315,
      "##개로": 6316,
      "##했네": 6317,
      "##라운드": 6318,
      "##계에": 6319,
      "태극기": 6320,
      "##봐요": 6321,
      "##오고": 6322,
      "무엇이": 6323,
      "##셉": 6324,
      "건데": 6325,
      "아마도": 6326,
      "이웃": 6327,
      "꿈을": 6328,
      "세금으로": 6329,
      "이모": 6330,
      "취재": 6331,
      "##줄알": 6332,
      "종료": 6333,
      "당한": 6334,
      "자아": 6335,
      "휴재": 6336,
      "친구가": 6337,
      "##드립": 6338,
      "IT": 6339,
      "##미를": 6340,
      "파트": 6341,
      "##쿨": 6342,
      "하반기": 6343,
      "##았다고": 6344,
      "2015": 6345,
      "치열": 6346,
      "검증": 6347,
      "##업을": 6348,
      "빼앗": 6349,
      "마감": 6350,
      "세상이": 6351,
      "당사": 6352,
      "##못이": 6353,
      "##지면서": 6354,
      "##하면서도": 6355,
      "##란히": 6356,
      "아저씨": 6357,
      "만날": 6358,
      "아이디어": 6359,
      "##까봐": 6360,
      "최순실": 6361,
      "대리": 6362,
      "##야한다": 6363,
      "발매": 6364,
      "맘에": 6365,
      "여의": 6366,
      "##있음": 6367,
      "기분이": 6368,
      "##대고": 6369,
      "명확": 6370,
      "핸드": 6371,
      "##놀": 6372,
      "스크": 6373,
      "전두환": 6374,
      "문통": 6375,
      "완결": 6376,
      "자라": 6377,
      "베댓님": 6378,
      "보낸": 6379,
      "과정을": 6380,
      "##ᆯ리는": 6381,
      "##경찰": 6382,
      "##레이드": 6383,
      "젖": 6384,
      "앱": 6385,
      "##총장": 6386,
      "보안": 6387,
      "아줌마": 6388,
      "##쓰는": 6389,
      "사로": 6390,
      "치매": 6391,
      "좋은데": 6392,
      "똑똑": 6393,
      "되기": 6394,
      "##전쟁": 6395,
      "##웨이": 6396,
      "테이": 6397,
      "띠": 6398,
      "##로그": 6399,
      "아울러": 6400,
      "점검": 6401,
      "2011년": 6402,
      "느그": 6403,
      "##점에": 6404,
      "##금은": 6405,
      "슬프": 6406,
      "소프트": 6407,
      "스트레스": 6408,
      "저항": 6409,
      "정신이": 6410,
      "장면이": 6411,
      "긴급": 6412,
      "오늘은": 6413,
      "선호": 6414,
      "수단": 6415,
      "하나는": 6416,
      "##이라서": 6417,
      "##11": 6418,
      "대충": 6419,
      "##공자": 6420,
      "내게": 6421,
      "주차": 6422,
      "##랑이": 6423,
      "쉬운": 6424,
      "해주세요": 6425,
      "##붕": 6426,
      "줄어들": 6427,
      "##민지": 6428,
      "##과학": 6429,
      "댓글이": 6430,
      "흐름": 6431,
      "##엽": 6432,
      "찰": 6433,
      "##었음": 6434,
      "획득": 6435,
      "질병": 6436,
      "동성애": 6437,
      "우리도": 6438,
      "##로가": 6439,
      "좋다고": 6440,
      "##애가": 6441,
      "당신의": 6442,
      "엿": 6443,
      "프리미": 6444,
      "완화": 6445,
      "않지만": 6446,
      "##펜": 6447,
      "##선수": 6448,
      "그렇다면": 6449,
      "접촉": 6450,
      "오랫": 6451,
      "집어": 6452,
      "한국이": 6453,
      "그럼에도": 6454,
      "클래": 6455,
      "사진을": 6456,
      "믿을": 6457,
      "얻을": 6458,
      "페이스": 6459,
      "##아주": 6460,
      "버리고": 6461,
      "후원": 6462,
      "##보를": 6463,
      "무섭": 6464,
      "그녀가": 6465,
      "##부터는": 6466,
      "대만": 6467,
      "해보": 6468,
      "##옷": 6469,
      "감싸": 6470,
      "정식": 6471,
      "악화": 6472,
      "PC": 6473,
      "##문의": 6474,
      "##메달": 6475,
      "##구의": 6476,
      "##조를": 6477,
      "찍어": 6478,
      "업종": 6479,
      "닫": 6480,
      "의견을": 6481,
      "20대": 6482,
      "시나리오": 6483,
      "##되어야": 6484,
      "웹": 6485,
      "경쟁력": 6486,
      "싫다": 6487,
      "카카오": 6488,
      "##연합": 6489,
      "한번도": 6490,
      "즐기": 6491,
      "헛소리": 6492,
      "##40": 6493,
      "##티브": 6494,
      "##공업": 6495,
      "방식으로": 6496,
      "##가에": 6497,
      "그러한": 6498,
      "4년": 6499,
      "엑": 6500,
      "복수": 6501,
      "반박": 6502,
      "이유를": 6503,
      "쾌": 6504,
      "##하겠다는": 6505,
      "##우면": 6506,
      "##프레": 6507,
      "##아나": 6508,
      "SNS": 6509,
      "##자마자": 6510,
      "##조리": 6511,
      "춘": 6512,
      "##사이": 6513,
      "좀더": 6514,
      "오직": 6515,
      "52": 6516,
      "부처": 6517,
      "아프리카": 6518,
      "알려져": 6519,
      "권한": 6520,
      "유저": 6521,
      "150": 6522,
      "표출": 6523,
      "모으": 6524,
      "그니까": 6525,
      "##뛰": 6526,
      "##까지도": 6527,
      "심각한": 6528,
      "버리": 6529,
      "라도": 6530,
      "되는거": 6531,
      "##표를": 6532,
      "분열": 6533,
      "론": 6534,
      "흔히": 6535,
      "했습니다": 6536,
      "연봉": 6537,
      "이들이": 6538,
      "무능한": 6539,
      "개의": 6540,
      "식당": 6541,
      "##같다": 6542,
      "사기꾼": 6543,
      "깨달": 6544,
      "펜": 6545,
      "부품": 6546,
      "##어리": 6547,
      "##합시다": 6548,
      "셈이다": 6549,
      "천재": 6550,
      "선진국": 6551,
      "김치": 6552,
      "점차": 6553,
      "몸에": 6554,
      "알려진": 6555,
      "##하고자": 6556,
      "##등급": 6557,
      "하니까": 6558,
      "뿌리": 6559,
      "에휴": 6560,
      "##그네": 6561,
      "걸린": 6562,
      "평범한": 6563,
      "홈런": 6564,
      "킹": 6565,
      "작품을": 6566,
      "앞으로도": 6567,
      "주력": 6568,
      "강요": 6569,
      "필리": 6570,
      "있었지만": 6571,
      "당연한": 6572,
      "##실에": 6573,
      "많아서": 6574,
      "퀴": 6575,
      "##나이": 6576,
      "알지": 6577,
      "트위터": 6578,
      "든다": 6579,
      "타격": 6580,
      "일주일": 6581,
      "안경": 6582,
      "다운": 6583,
      "48": 6584,
      "##시켰다": 6585,
      "방지": 6586,
      "같음": 6587,
      "지능": 6588,
      "보며": 6589,
      "무지": 6590,
      "기도": 6591,
      "효과가": 6592,
      "##너스": 6593,
      "##지사": 6594,
      "##스러": 6595,
      "쪽바리": 6596,
      "##재미": 6597,
      "징역": 6598,
      "한쪽": 6599,
      "아무래도": 6600,
      "로부터": 6601,
      "이로": 6602,
      "대통령의": 6603,
      "이틀": 6604,
      "##내용": 6605,
      "해체": 6606,
      "에선": 6607,
      "쉴드": 6608,
      "르": 6609,
      "주체": 6610,
      "##셈": 6611,
      "신한": 6612,
      "극장": 6613,
      "##만명": 6614,
      "폭행": 6615,
      "2008년": 6616,
      "55": 6617,
      "저번": 6618,
      "##회에서": 6619,
      "와이": 6620,
      "무엇을": 6621,
      "잠재": 6622,
      "##문학": 6623,
      "아니었다": 6624,
      "접수": 6625,
      "39": 6626,
      "중반": 6627,
      "무엇보다": 6628,
      "##에겐": 6629,
      "아야": 6630,
      "##조합": 6631,
      "41": 6632,
      "무게": 6633,
      "묘사": 6634,
      "치킨": 6635,
      "쳐다": 6636,
      "이쁘": 6637,
      "##버렸": 6638,
      "시간에": 6639,
      "##세로": 6640,
      "어쩌면": 6641,
      "##발전": 6642,
      "권리": 6643,
      "없어요": 6644,
      "##빡": 6645,
      "아기": 6646,
      "##말은": 6647,
      "##앤": 6648,
      "하긴": 6649,
      "있어도": 6650,
      "2016": 6651,
      "읽어": 6652,
      "##만화": 6653,
      "로봇": 6654,
      "이스": 6655,
      "##모를": 6656,
      "뜻을": 6657,
      "독특": 6658,
      "이들의": 6659,
      "##였습니다": 6660,
      "##단에": 6661,
      "사이비": 6662,
      "재벌": 6663,
      "파티": 6664,
      "사이다": 6665,
      "##선의": 6666,
      "코미디": 6667,
      "격리": 6668,
      "숨겨": 6669,
      "##산을": 6670,
      "매입": 6671,
      "##서의": 6672,
      "강의": 6673,
      "명이": 6674,
      "번역": 6675,
      "##젠": 6676,
      "경계": 6677,
      "한국에서": 6678,
      "공직": 6679,
      "##ᆺ네": 6680,
      "##닭": 6681,
      "삭제": 6682,
      "인간들이": 6683,
      "동맹": 6684,
      "안철수": 6685,
      "재능": 6686,
      "아니라는": 6687,
      "때부터": 6688,
      "활발": 6689,
      "##달라": 6690,
      "죽어": 6691,
      "대폭": 6692,
      "고양이": 6693,
      "짤": 6694,
      "선고": 6695,
      "죽는": 6696,
      "##했기": 6697,
      "보러": 6698,
      "##쩝": 6699,
      "합류": 6700,
      "##자들을": 6701,
      "연예인": 6702,
      "맞춤": 6703,
      "육성": 6704,
      "##구에": 6705,
      "##때도": 6706,
      "2014": 6707,
      "임기": 6708,
      "##술을": 6709,
      "한달": 6710,
      "단기": 6711,
      "##봤는데": 6712,
      "방송된": 6713,
      "서류": 6714,
      "##졌네": 6715,
      "돈으로": 6716,
      "패러": 6717,
      "사유": 6718,
      "아픈": 6719,
      "##시로": 6720,
      "##도와": 6721,
      "##석을": 6722,
      "없었던": 6723,
      "감각": 6724,
      "대학교": 6725,
      "유행": 6726,
      "텐데": 6727,
      "##하지않": 6728,
      "개편": 6729,
      "##하더니": 6730,
      "끊임": 6731,
      "##단계": 6732,
      "디자": 6733,
      "편안": 6734,
      "##쁨": 6735,
      "보고싶": 6736,
      "개인적으로": 6737,
      "왜곡": 6738,
      "축소": 6739,
      "은퇴": 6740,
      "##가능": 6741,
      "##했어요": 6742,
      "쉽지": 6743,
      "##밭": 6744,
      "다음에": 6745,
      "했으며": 6746,
      "뭐지": 6747,
      "며칠": 6748,
      "##큰": 6749,
      "나라는": 6750,
      "의존": 6751,
      "##판을": 6752,
      "존중": 6753,
      "##르크": 6754,
      "하지말고": 6755,
      "조언": 6756,
      "대변인": 6757,
      "배출": 6758,
      "붙어": 6759,
      "부진": 6760,
      "##있게": 6761,
      "##소년": 6762,
      "흠": 6763,
      "2017": 6764,
      "##었네": 6765,
      "##색이": 6766,
      "##물로": 6767,
      "실행": 6768,
      "##다리": 6769,
      "개막": 6770,
      "저리": 6771,
      "진심으로": 6772,
      "단일": 6773,
      "베스트": 6774,
      "##팔이": 6775,
      "추측": 6776,
      "하더라도": 6777,
      "말하면": 6778,
      "메르": 6779,
      "결합": 6780,
      "난다": 6781,
      "면접": 6782,
      "##해져": 6783,
      "2009년": 6784,
      "매주": 6785,
      "##하는것": 6786,
      "근육": 6787,
      "##늦": 6788,
      "이시": 6789,
      "배뎃": 6790,
      "감시": 6791,
      "에어": 6792,
      "과제": 6793,
      "이경": 6794,
      "전공": 6795,
      "갖춘": 6796,
      "근대": 6797,
      "호주": 6798,
      "##밤": 6799,
      "적당히": 6800,
      "스토리가": 6801,
      "스카": 6802,
      "대북": 6803,
      "웃음을": 6804,
      "할까": 6805,
      "최저임금": 6806,
      "무서워": 6807,
      "##기까지": 6808,
      "양성": 6809,
      "##버려": 6810,
      "심장": 6811,
      "##ᆯ을": 6812,
      "##타를": 6813,
      "조만": 6814,
      "호소": 6815,
      "우울": 6816,
      "##듣": 6817,
      "##세력": 6818,
      "##금으로": 6819,
      "윗": 6820,
      "아가": 6821,
      "연말": 6822,
      "##건가요": 6823,
      "보여준다": 6824,
      "걸로": 6825,
      "알았다": 6826,
      "##에게서": 6827,
      "##치로": 6828,
      "##은데": 6829,
      "차가": 6830,
      "쿼": 6831,
      "##지와": 6832,
      "언제까지": 6833,
      "측은": 6834,
      "봤다": 6835,
      "듀": 6836,
      "싸워": 6837,
      "##니가": 6838,
      "영원히": 6839,
      "출범": 6840,
      "살아남": 6841,
      "오로지": 6842,
      "네트워크": 6843,
      "대표적인": 6844,
      "해줘": 6845,
      "개방": 6846,
      "의원은": 6847,
      "관광객": 6848,
      "##쪼": 6849,
      "조기": 6850,
      "패턴": 6851,
      "임신": 6852,
      "주어": 6853,
      "3000": 6854,
      "42": 6855,
      "알리": 6856,
      "엠": 6857,
      "일하는": 6858,
      "라헬": 6859,
      "영입": 6860,
      "김태": 6861,
      "아이돌": 6862,
      "##시즌": 6863,
      "트레": 6864,
      "젤": 6865,
      "믿는": 6866,
      "이렇": 6867,
      "##하길": 6868,
      "##좋아": 6869,
      "##지말": 6870,
      "##팩": 6871,
      "##률을": 6872,
      "향상": 6873,
      "시급": 6874,
      "입은": 6875,
      "어렵다": 6876,
      "##하고는": 6877,
      "공기": 6878,
      "미니": 6879,
      "김종": 6880,
      "무언": 6881,
      "여겨": 6882,
      "영화에": 6883,
      "안나오": 6884,
      "쯤": 6885,
      "##일러": 6886,
      "시진": 6887,
      "잔인": 6888,
      "비싼": 6889,
      "라디오": 6890,
      "##혐": 6891,
      "최악의": 6892,
      "원자": 6893,
      "사용할": 6894,
      "이것도": 6895,
      "쭉": 6896,
      "짓을": 6897,
      "객관": 6898,
      "크다": 6899,
      "##ᆻ으나": 6900,
      "받아야": 6901,
      "##ᅰ손": 6902,
      "천안": 6903,
      "예수": 6904,
      "뜻이": 6905,
      "개가": 6906,
      "##서야": 6907,
      "혐오": 6908,
      "65": 6909,
      "##랍": 6910,
      "뜨거운": 6911,
      "눈길을": 6912,
      "지닌": 6913,
      "무관": 6914,
      "첫번째": 6915,
      "개별": 6916,
      "등은": 6917,
      "용서": 6918,
      "경제가": 6919,
      "##하지도": 6920,
      "강조했다": 6921,
      "사정": 6922,
      "그곳": 6923,
      "##해야한다": 6924,
      "아이들": 6925,
      "좌우": 6926,
      "씌": 6927,
      "훌륭한": 6928,
      "두번째": 6929,
      "빨아": 6930,
      "한나라당": 6931,
      "잡혀": 6932,
      "사건이": 6933,
      "수도권": 6934,
      "벤처": 6935,
      "##트리": 6936,
      "인간은": 6937,
      "##al": 6938,
      "##당하고": 6939,
      "입장을": 6940,
      "20년": 6941,
      "##en": 6942,
      "##시기": 6943,
      "##진의": 6944,
      "##삭": 6945,
      "떨어지는": 6946,
      "##옹": 6947,
      "맞이": 6948,
      "다음과": 6949,
      "우리나라는": 6950,
      "포장": 6951,
      "그러다": 6952,
      "##복지": 6953,
      "##어는": 6954,
      "폐쇄": 6955,
      "등장하는": 6956,
      "몰래": 6957,
      "일에": 6958,
      "##으러": 6959,
      "모임": 6960,
      "원내대표": 6961,
      "왼쪽": 6962,
      "사건을": 6963,
      "한참": 6964,
      "집계": 6965,
      "함부로": 6966,
      "##물에": 6967,
      "##한테는": 6968,
      "위선": 6969,
      "##으므로": 6970,
      "##겠어요": 6971,
      "미국은": 6972,
      "차원": 6973,
      "5일": 6974,
      "##군을": 6975,
      "##때부터": 6976,
      "무죄": 6977,
      "올바": 6978,
      "이놈": 6979,
      "학부모": 6980,
      "##했는지": 6981,
      "조절": 6982,
      "##시간에": 6983,
      "##살이": 6984,
      "매매": 6985,
      "축제": 6986,
      "##ᆷ으로": 6987,
      "어휴": 6988,
      "법안": 6989,
      "께": 6990,
      "거절": 6991,
      "##해지는": 6992,
      "모르게": 6993,
      "차기": 6994,
      "##주인": 6995,
      "##았을": 6996,
      "깊이": 6997,
      "유치원": 6998,
      "보스": 6999,
      "##겠네요": 7000,
      "갖다": 7001,
      "##라고요": 7002,
      "동반": 7003,
      "남자는": 7004,
      "아버지가": 7005,
      "##st": 7006,
      "##관은": 7007,
      "##필요": 7008,
      "겹": 7009,
      "마시고": 7010,
      "역사를": 7011,
      "욕을": 7012,
      "비즈": 7013,
      "가려": 7014,
      "##오면": 7015,
      "##ᆺ은": 7016,
      "은근": 7017,
      "##했어": 7018,
      "심한": 7019,
      "사로잡": 7020,
      "김경": 7021,
      "최초로": 7022,
      "드는": 7023,
      "늦게": 7024,
      "그렇다": 7025,
      "부드": 7026,
      "##정도로": 7027,
      "안될": 7028,
      "##주기": 7029,
      "북한의": 7030,
      "매번": 7031,
      "##띠": 7032,
      "타이틀": 7033,
      "그렇지만": 7034,
      "방법이": 7035,
      "##다운": 7036,
      "가시": 7037,
      "##국은": 7038,
      "죽이고": 7039,
      "멈추": 7040,
      "##했지": 7041,
      "##분은": 7042,
      "##하라는": 7043,
      "성향": 7044,
      "욕하는": 7045,
      "스케": 7046,
      "갱": 7047,
      "같아서": 7048,
      "몬스터": 7049,
      "##하려면": 7050,
      "개인의": 7051,
      "오바": 7052,
      "안다": 7053,
      "해명": 7054,
      "노선": 7055,
      "밝힌": 7056,
      "블루": 7057,
      "박원": 7058,
      "사내": 7059,
      "75": 7060,
      "연관": 7061,
      "##마을": 7062,
      "중국은": 7063,
      "##용으로": 7064,
      "##사태": 7065,
      "신설": 7066,
      "바라는": 7067,
      "##병원": 7068,
      "##념을": 7069,
      "흥행": 7070,
      "##거라고": 7071,
      "##님들": 7072,
      "합병": 7073,
      "한글": 7074,
      "형식": 7075,
      "절대로": 7076,
      "기업의": 7077,
      "##해가": 7078,
      "##걸리": 7079,
      "철수": 7080,
      "백화점": 7081,
      "한계": 7082,
      "갚": 7083,
      "원을": 7084,
      "##저히": 7085,
      "자국민": 7086,
      "##먼트": 7087,
      "힘들어": 7088,
      "반전": 7089,
      "조금씩": 7090,
      "에피소드": 7091,
      "##벅": 7092,
      "진영": 7093,
      "개성": 7094,
      "기생충": 7095,
      "붉은": 7096,
      "타임": 7097,
      "벌레": 7098,
      "##하죠": 7099,
      "코리아": 7100,
      "기억이": 7101,
      "##밖": 7102,
      "##없네": 7103,
      "반응을": 7104,
      "사람에게": 7105,
      "고유": 7106,
      "의외": 7107,
      "질환": 7108,
      "거론": 7109,
      "오늘날": 7110,
      "선임": 7111,
      "훔": 7112,
      "중학교": 7113,
      "셰": 7114,
      "처음에": 7115,
      "특검": 7116,
      "모습으로": 7117,
      "낚": 7118,
      "드래곤": 7119,
      "곽": 7120,
      "지지하는": 7121,
      "구간": 7122,
      "##저리": 7123,
      "##사에서": 7124,
      "로서": 7125,
      "돌아다니": 7126,
      "##소에": 7127,
      "참으로": 7128,
      "선두": 7129,
      "##연금": 7130,
      "고대": 7131,
      "적극적으로": 7132,
      "##한것": 7133,
      "촉구": 7134,
      "##신의": 7135,
      "외치": 7136,
      "3개": 7137,
      "물타": 7138,
      "연주": 7139,
      "##비로": 7140,
      "시내": 7141,
      "비롯해": 7142,
      "엮": 7143,
      "국가가": 7144,
      "오랫동안": 7145,
      "왜냐하면": 7146,
      "대규모": 7147,
      "대한민국을": 7148,
      "혁명": 7149,
      "휴대폰": 7150,
      "재료": 7151,
      "왕자": 7152,
      "생각도": 7153,
      "빗": 7154,
      "발달": 7155,
      "주연": 7156,
      "폐기": 7157,
      "화재": 7158,
      "##앞에": 7159,
      "공중": 7160,
      "쫌": 7161,
      "당초": 7162,
      "똑바로": 7163,
      "받게": 7164,
      "나타내": 7165,
      "오리": 7166,
      "조만간": 7167,
      "넷": 7168,
      "##하시고": 7169,
      "##벌레": 7170,
      "##들어가": 7171,
      "##신은": 7172,
      "##이유": 7173,
      "남을": 7174,
      "##바라": 7175,
      "한수": 7176,
      "즐길": 7177,
      "##다란": 7178,
      "동남": 7179,
      "##at": 7180,
      "저건": 7181,
      "구역": 7182,
      "협회": 7183,
      "쪽으로": 7184,
      "꺾": 7185,
      "기업이": 7186,
      "##마리": 7187,
      "인하": 7188,
      "##르기": 7189,
      "했으면": 7190,
      "연대": 7191,
      "##으라고": 7192,
      "##지에서": 7193,
      "##졌고": 7194,
      "자연스럽게": 7195,
      "상업": 7196,
      "다르다": 7197,
      "곳에서": 7198,
      "요금": 7199,
      "##일로": 7200,
      "지자체": 7201,
      "##빨리": 7202,
      "가상": 7203,
      "위하여": 7204,
      "##억원을": 7205,
      "어쨌든": 7206,
      "오프": 7207,
      "##할지": 7208,
      "받는다": 7209,
      "없게": 7210,
      "형제": 7211,
      "##뚝": 7212,
      "풍부": 7213,
      "매출액": 7214,
      "디스": 7215,
      "메인": 7216,
      "눈빛": 7217,
      "갖춰": 7218,
      "앵": 7219,
      "댓": 7220,
      "군인": 7221,
      "깡": 7222,
      "웹툰이": 7223,
      "씨가": 7224,
      "충북": 7225,
      "어떨": 7226,
      "따뜻": 7227,
      "땐": 7228,
      "깎": 7229,
      "부족한": 7230,
      "그러면서": 7231,
      "지나가": 7232,
      "아쉽": 7233,
      "##차례": 7234,
      "##시마": 7235,
      "##능력": 7236,
      "그런지": 7237,
      "##았습니다": 7238,
      "##편이": 7239,
      "성폭행": 7240,
      "##하지마": 7241,
      "CJ": 7242,
      "미래를": 7243,
      "유학": 7244,
      "##크를": 7245,
      "##발이": 7246,
      "살기": 7247,
      "청문회": 7248,
      "옷을": 7249,
      "##어져": 7250,
      "무사": 7251,
      "매체": 7252,
      "잘못이": 7253,
      "##시험": 7254,
      "##지나": 7255,
      "증시": 7256,
      "첫째": 7257,
      "##된다고": 7258,
      "브리": 7259,
      "자본주의": 7260,
      "문죄인": 7261,
      "법정": 7262,
      "한가": 7263,
      "뻐": 7264,
      "빨갱": 7265,
      "거라고": 7266,
      "##전문": 7267,
      "일자": 7268,
      "나라에서": 7269,
      "부패": 7270,
      "턱": 7271,
      "내린": 7272,
      "담겨": 7273,
      "##윈": 7274,
      "##었지": 7275,
      "##돌리": 7276,
      "44": 7277,
      "것인지": 7278,
      "주거": 7279,
      "메시": 7280,
      "##활이": 7281,
      "게시": 7282,
      "발굴": 7283,
      "직전": 7284,
      "##땜에": 7285,
      "##산물": 7286,
      "##중이": 7287,
      "10일": 7288,
      "밤이": 7289,
      "##란드": 7290,
      "복합": 7291,
      "골라": 7292,
      "##만들": 7293,
      "##보니까": 7294,
      "채워": 7295,
      "물량": 7296,
      "내면": 7297,
      "##하자면": 7298,
      "하려고": 7299,
      "구글": 7300,
      "##12": 7301,
      "##해줄": 7302,
      "수록": 7303,
      "너의": 7304,
      "연극": 7305,
      "바람에": 7306,
      "날이": 7307,
      "트로": 7308,
      "##산이": 7309,
      "음주": 7310,
      "공원": 7311,
      "석유": 7312,
      "##책을": 7313,
      "부실": 7314,
      "팽": 7315,
      "뒤에서": 7316,
      "##해졌다": 7317,
      "끔": 7318,
      "##운용": 7319,
      "기아": 7320,
      "##겠나": 7321,
      "이른바": 7322,
      "##망이": 7323,
      "현실을": 7324,
      "해양": 7325,
      "43": 7326,
      "불만": 7327,
      "속으로": 7328,
      "이어지": 7329,
      "##치의": 7330,
      "끝나고": 7331,
      "읽고": 7332,
      "덧붙였다": 7333,
      "##잠": 7334,
      "뷰": 7335,
      "##있으면": 7336,
      "##법은": 7337,
      "이끌어": 7338,
      "보여준": 7339,
      "취득": 7340,
      "느끼는": 7341,
      "##ᆻ는": 7342,
      "추세": 7343,
      "운행": 7344,
      "판타": 7345,
      "가슴이": 7346,
      "##민주주의": 7347,
      "##서도": 7348,
      "뮤지컬": 7349,
      "점은": 7350,
      "2012": 7351,
      "유엔": 7352,
      "정도는": 7353,
      "한거": 7354,
      "##집단": 7355,
      "그러므로": 7356,
      "쉐": 7357,
      "##학의": 7358,
      "##드라": 7359,
      "닿": 7360,
      "투수": 7361,
      "##총리": 7362,
      "체포": 7363,
      "깨끗": 7364,
      "없나": 7365,
      "갤럭": 7366,
      "상태에서": 7367,
      "공화": 7368,
      "배운": 7369,
      "쎄": 7370,
      "죽고": 7371,
      "##관에서": 7372,
      "어떠한": 7373,
      "귀여워": 7374,
      "##상에서": 7375,
      "오타": 7376,
      "진실을": 7377,
      "##마스": 7378,
      "핀": 7379,
      "저렴": 7380,
      "입에": 7381,
      "주주": 7382,
      "##테니": 7383,
      "##제도": 7384,
      "연령": 7385,
      "195": 7386,
      "즈": 7387,
      "물을": 7388,
      "제3": 7389,
      "##했음": 7390,
      "##식은": 7391,
      "##인물": 7392,
      "쿤": 7393,
      "##해주고": 7394,
      "거두": 7395,
      "##없음": 7396,
      "##나간": 7397,
      "##낭": 7398,
      "똘": 7399,
      "##찮아": 7400,
      "자리에서": 7401,
      "죽일": 7402,
      "##마를": 7403,
      "얼굴에": 7404,
      "챙기": 7405,
      "주사파": 7406,
      "떡밥": 7407,
      "초등학교": 7408,
      "보여줘": 7409,
      "점유": 7410,
      "전파": 7411,
      "뭔데": 7412,
      "덧붙였": 7413,
      "아치": 7414,
      "##ᆫ다는": 7415,
      "사냥": 7416,
      "출근": 7417,
      "원장": 7418,
      "고작": 7419,
      "출입": 7420,
      "##ᆻ을까": 7421,
      "교류": 7422,
      "끌려": 7423,
      "##아닌가": 7424,
      "고기": 7425,
      "제약": 7426,
      "##부지": 7427,
      "하나하나": 7428,
      "##해질": 7429,
      "##으시": 7430,
      "결과가": 7431,
      "있으나": 7432,
      "멀쩡": 7433,
      "닦": 7434,
      "##아니고": 7435,
      "즉시": 7436,
      "##버렸다": 7437,
      "쟁": 7438,
      "##승을": 7439,
      "출판": 7440,
      "2007년": 7441,
      "정말로": 7442,
      "영양": 7443,
      "폼": 7444,
      "##처리": 7445,
      "멍청한": 7446,
      "AI": 7447,
      "애들은": 7448,
      "##효과": 7449,
      "의문": 7450,
      "오른쪽": 7451,
      "계시": 7452,
      "##성으로": 7453,
      "##아리": 7454,
      "파업": 7455,
      "들어가는": 7456,
      "##전으로": 7457,
      "공시": 7458,
      "자고": 7459,
      "어려움": 7460,
      "##때까지": 7461,
      "##더군요": 7462,
      "위에서": 7463,
      "##망을": 7464,
      "종종": 7465,
      "김현": 7466,
      "색깔": 7467,
      "##함에": 7468,
      "목숨을": 7469,
      "삽": 7470,
      "##ᆸ쓸": 7471,
      "전원": 7472,
      "생태": 7473,
      "다수": 7474,
      "2일": 7475,
      "상영": 7476,
      "이정": 7477,
      "플라": 7478,
      "환영": 7479,
      "##공개": 7480,
      "향한": 7481,
      "요새": 7482,
      "화이트": 7483,
      "##60": 7484,
      "##니어": 7485,
      "장악": 7486,
      "날아": 7487,
      "그녀를": 7488,
      "##들이나": 7489,
      "##직한": 7490,
      "2019": 7491,
      "재앙이": 7492,
      "세트": 7493,
      "미통": 7494,
      "정확한": 7495,
      "찐": 7496,
      "막을": 7497,
      "##햇": 7498,
      "부모가": 7499,
      "##아파": 7500,
      "두번": 7501,
      "포스코": 7502,
      "##놀이": 7503,
      "유기": 7504,
      "##호의": 7505,
      "##공항": 7506,
      "레드": 7507,
      "늙": 7508,
      "##ᆻ기": 7509,
      "전망이다": 7510,
      "것만": 7511,
      "쓰지": 7512,
      "댓글을": 7513,
      "##줌": 7514,
      "마지막으로": 7515,
      "텍": 7516,
      "##티즌": 7517,
      "극단": 7518,
      "식사": 7519,
      "##서비스": 7520,
      "##엉": 7521,
      "민주당이": 7522,
      "아끼": 7523,
      "배제": 7524,
      "밖으로": 7525,
      "##딜": 7526,
      "대립": 7527,
      "생각할": 7528,
      "기술을": 7529,
      "47": 7530,
      "사람들도": 7531,
      "폭탄": 7532,
      "맛이": 7533,
      "##로도": 7534,
      "장학": 7535,
      "##해지고": 7536,
      "15일": 7537,
      "아카": 7538,
      "일관": 7539,
      "일방": 7540,
      "문자": 7541,
      "거대한": 7542,
      "잘하고": 7543,
      "포항": 7544,
      "##ᆫ스": 7545,
      "승부": 7546,
      "전작": 7547,
      "검찰은": 7548,
      "적응": 7549,
      "접종": 7550,
      "데미": 7551,
      "듯이": 7552,
      "49": 7553,
      "갈아": 7554,
      "##해를": 7555,
      "건지": 7556,
      "진중": 7557,
      "##토록": 7558,
      "##프를": 7559,
      "##라의": 7560,
      "##보면서": 7561,
      "예쁜": 7562,
      "연구원": 7563,
      "##뚜": 7564,
      "목사": 7565,
      "수영": 7566,
      "일으키": 7567,
      "##화로": 7568,
      "휴가": 7569,
      "쓸데": 7570,
      "##응이": 7571,
      "강간": 7572,
      "들어갈": 7573,
      "모습은": 7574,
      "##테이": 7575,
      "##해서는": 7576,
      "기다리고": 7577,
      "##동네": 7578,
      "194": 7579,
      "있음을": 7580,
      "극우": 7581,
      "만들어서": 7582,
      "##생이": 7583,
      "이번엔": 7584,
      "##조는": 7585,
      "##발을": 7586,
      "##있지": 7587,
      "죄를": 7588,
      "##경영": 7589,
      "##율을": 7590,
      "보고서": 7591,
      "애가": 7592,
      "##민은": 7593,
      "##씨의": 7594,
      "회계": 7595,
      "가동": 7596,
      "단속": 7597,
      "웅": 7598,
      "같고": 7599,
      "##권에": 7600,
      "느낌을": 7601,
      "곰": 7602,
      "##인들의": 7603,
      "줄이": 7604,
      "던져": 7605,
      "##저기": 7606,
      "원숭이": 7607,
      "말았다": 7608,
      "공짜": 7609,
      "##갱이": 7610,
      "##희는": 7611,
      "대한민국이": 7612,
      "##흔": 7613,
      "이득": 7614,
      "걔": 7615,
      "과도": 7616,
      "##쩌": 7617,
      "논문": 7618,
      "##본부": 7619,
      "##집에": 7620,
      "후배": 7621,
      "과장": 7622,
      "손으로": 7623,
      "초청": 7624,
      "관측": 7625,
      "콘서": 7626,
      "나라에": 7627,
      "돌아와": 7628,
      "##뜻한": 7629,
      "##스팅": 7630,
      "조달": 7631,
      "리즈": 7632,
      "##안하고": 7633,
      "레벨": 7634,
      "전염": 7635,
      "특유의": 7636,
      "##he": 7637,
      "노란": 7638,
      "##하지는": 7639,
      "##하의": 7640,
      "날려": 7641,
      "정상적인": 7642,
      "나면": 7643,
      "CE": 7644,
      "넘게": 7645,
      "신이": 7646,
      "##좋게": 7647,
      "##검사": 7648,
      "조각": 7649,
      "그에게": 7650,
      "20일": 7651,
      "품질": 7652,
      "같았다": 7653,
      "1도": 7654,
      "몇년": 7655,
      "##체의": 7656,
      "##구석": 7657,
      "문재앙이": 7658,
      "4대": 7659,
      "죽인": 7660,
      "##르지": 7661,
      "지겨": 7662,
      "저축": 7663,
      "##노동": 7664,
      "평가를": 7665,
      "##훈이": 7666,
      "홍준": 7667,
      "올렸": 7668,
      "정권이": 7669,
      "4일": 7670,
      "통상": 7671,
      "페이스북": 7672,
      "##아의": 7673,
      "쌔": 7674,
      "##권의": 7675,
      "주변에": 7676,
      "##피스": 7677,
      "농업": 7678,
      "##함과": 7679,
      "##운이": 7680,
      "정수": 7681,
      "일으켜": 7682,
      "##매매": 7683,
      "토지": 7684,
      "##왕이": 7685,
      "##만으로도": 7686,
      "##선동": 7687,
      "흡수": 7688,
      "정비": 7689,
      "##직을": 7690,
      "입장에서": 7691,
      "건가": 7692,
      "어지": 7693,
      "태어난": 7694,
      "나간": 7695,
      "여친": 7696,
      "로마": 7697,
      "매달": 7698,
      "나가는": 7699,
      "빌려": 7700,
      "유출": 7701,
      "국가의": 7702,
      "나이가": 7703,
      "나섰다": 7704,
      "##우리": 7705,
      "전교": 7706,
      "선사": 7707,
      "황금": 7708,
      "##하에": 7709,
      "##십시오": 7710,
      "7일": 7711,
      "##되는거": 7712,
      "##명한": 7713,
      "##증이": 7714,
      "파견": 7715,
      "특허": 7716,
      "신분": 7717,
      "##리며": 7718,
      "##언론": 7719,
      "전북": 7720,
      "##뿔": 7721,
      "감정을": 7722,
      "무장": 7723,
      "표준": 7724,
      "올랐다": 7725,
      "##80": 7726,
      "##많이": 7727,
      "달고": 7728,
      "##틱": 7729,
      "선전": 7730,
      "당당": 7731,
      "대안": 7732,
      "정책을": 7733,
      "공략": 7734,
      "말라": 7735,
      "집으로": 7736,
      "담긴": 7737,
      "##속에서": 7738,
      "캡처": 7739,
      "유발": 7740,
      "부과": 7741,
      "산다": 7742,
      "하겠다": 7743,
      "수립": 7744,
      "62": 7745,
      "외환": 7746,
      "서비스를": 7747,
      "금방": 7748,
      "정신을": 7749,
      "경찰이": 7750,
      "다이어": 7751,
      "##웨어": 7752,
      "김일": 7753,
      "##작이": 7754,
      "##그램": 7755,
      "감히": 7756,
      "보세요": 7757,
      "돌아온": 7758,
      "범죄자": 7759,
      "연기를": 7760,
      "오염": 7761,
      "가질": 7762,
      "누적": 7763,
      "김대중": 7764,
      "##률은": 7765,
      "적자": 7766,
      "각자": 7767,
      "둥": 7768,
      "고집": 7769,
      "새롭게": 7770,
      "간호": 7771,
      "모르겠지만": 7772,
      "##희가": 7773,
      "진화": 7774,
      "맞서": 7775,
      "##짓을": 7776,
      "##소리를": 7777,
      "기대를": 7778,
      "##았지만": 7779,
      "한때": 7780,
      "붙여": 7781,
      "##는것": 7782,
      "법이": 7783,
      "##율은": 7784,
      "##관광": 7785,
      "##선은": 7786,
      "##곳이": 7787,
      "이번에는": 7788,
      "철도": 7789,
      "학생들이": 7790,
      "공격을": 7791,
      "전부터": 7792,
      "지어": 7793,
      "스키": 7794,
      "##권은": 7795,
      "친환경": 7796,
      "##작을": 7797,
      "##있냐": 7798,
      "어느정도": 7799,
      "조금만": 7800,
      "##구역": 7801,
      "적합": 7802,
      "##격이": 7803,
      "##푼": 7804,
      "명단": 7805,
      "마땅": 7806,
      "##리와": 7807,
      "그야말로": 7808,
      "##통합": 7809,
      "민노총": 7810,
      "구라": 7811,
      "커다란": 7812,
      "오브": 7813,
      "갤럭시": 7814,
      "범위": 7815,
      "본질": 7816,
      "##해준": 7817,
      "계열사": 7818,
      "##경은": 7819,
      "끓": 7820,
      "대장": 7821,
      "인기를": 7822,
      "##차는": 7823,
      "자세히": 7824,
      "##통신": 7825,
      "허가": 7826,
      "정치를": 7827,
      "어떻": 7828,
      "들어온": 7829,
      "기존의": 7830,
      "허위": 7831,
      "##듯한": 7832,
      "부서": 7833,
      "임원": 7834,
      "서양": 7835,
      "힘들게": 7836,
      "##센트": 7837,
      "가치를": 7838,
      "신속": 7839,
      "끝날": 7840,
      "600": 7841,
      "쓰레": 7842,
      "힘들다": 7843,
      "##모가": 7844,
      "붕괴": 7845,
      "구멍": 7846,
      "할때": 7847,
      "점수": 7848,
      "특이": 7849,
      "기득": 7850,
      "보아": 7851,
      "중요하다": 7852,
      "세우": 7853,
      "강하게": 7854,
      "지사": 7855,
      "많았다": 7856,
      "귀족": 7857,
      "##돋": 7858,
      "유승": 7859,
      "만들어진": 7860,
      "소수": 7861,
      "열고": 7862,
      "곧바로": 7863,
      "맡은": 7864,
      "##해진다": 7865,
      "관계가": 7866,
      "눈물이": 7867,
      "괴물": 7868,
      "##되게": 7869,
      "조차": 7870,
      "졸라": 7871,
      "할아버지": 7872,
      "버섯": 7873,
      "##제에": 7874,
      "방탄": 7875,
      "노트": 7876,
      "말만": 7877,
      "유일하게": 7878,
      "제외한": 7879,
      "승인": 7880,
      "양반": 7881,
      "##비용": 7882,
      "최우": 7883,
      "종이": 7884,
      "젠": 7885,
      "##딩이": 7886,
      "##마는": 7887,
      "규모의": 7888,
      "##잼": 7889,
      "삶은": 7890,
      "##무시": 7891,
      "##차별": 7892,
      "급격": 7893,
      "민주당은": 7894,
      "큐": 7895,
      "계획을": 7896,
      "후속": 7897,
      "##겁": 7898,
      "##소는": 7899,
      "##하하": 7900,
      "국산": 7901,
      "어떡": 7902,
      "##조의": 7903,
      "조중": 7904,
      "꿈꾸": 7905,
      "##에다": 7906,
      "바뀐": 7907,
      "##대에서": 7908,
      "2010": 7909,
      "2개": 7910,
      "바퀴": 7911,
      "##리네": 7912,
      "00": 7913,
      "46": 7914,
      "굶": 7915,
      "단순한": 7916,
      "다시는": 7917,
      "춤": 7918,
      "논란이": 7919,
      "14일": 7920,
      "잘하는": 7921,
      "맞게": 7922,
      "재단": 7923,
      "상대적으로": 7924,
      "점이다": 7925,
      "신종": 7926,
      "부분을": 7927,
      "중도": 7928,
      "##주민": 7929,
      "재수": 7930,
      "운운": 7931,
      "##콜": 7932,
      "마인": 7933,
      "방사능": 7934,
      "##였지만": 7935,
      "홍준표": 7936,
      "처음에는": 7937,
      "보증": 7938,
      "##때문": 7939,
      "지껄": 7940,
      "나중": 7941,
      "북미": 7942,
      "외면": 7943,
      "##겠는데": 7944,
      "아이폰": 7945,
      "체력": 7946,
      "경기를": 7947,
      "대하여": 7948,
      "화려한": 7949,
      "##명에": 7950,
      "시진핑": 7951,
      "##IA": 7952,
      "##는다고": 7953,
      "수천": 7954,
      "##단지": 7955,
      "##뿌": 7956,
      "브라질": 7957,
      "않아도": 7958,
      "이태": 7959,
      "맞은": 7960,
      "무식한": 7961,
      "답이": 7962,
      "않도록": 7963,
      "몫": 7964,
      "##았으면": 7965,
      "##답게": 7966,
      "쩝": 7967,
      "이순": 7968,
      "생활을": 7969,
      "국개": 7970,
      "##결과": 7971,
      "##있습니다": 7972,
      "린": 7973,
      "##타임": 7974,
      "##사람들이": 7975,
      "##들에게는": 7976,
      "컬러": 7977,
      "편이다": 7978,
      "##랭": 7979,
      "감추": 7980,
      "신의탑": 7981,
      "블록": 7982,
      "이라며": 7983,
      "이름으로": 7984,
      "옵": 7985,
      "서초": 7986,
      "보급": 7987,
      "표창": 7988,
      "각오": 7989,
      "찬양": 7990,
      "한국을": 7991,
      "고쳐": 7992,
      "##시켜야": 7993,
      "지각": 7994,
      "수준의": 7995,
      "##케이션": 7996,
      "1조": 7997,
      "주기": 7998,
      "들을": 7999,
      "조지": 8000,
      "호흡": 8001,
      "뺏": 8002,
      "이해할": 8003,
      "메이저": 8004,
      "입증": 8005,
      "##작용": 8006,
      "쓰면": 8007,
      "##인에": 8008,
      "뛰어나": 8009,
      "관찰": 8010,
      "##룸": 8011,
      "부르는": 8012,
      "퇴직": 8013,
      "##읍": 8014,
      "##에서만": 8015,
      "1등": 8016,
      "사회의": 8017,
      "##크가": 8018,
      "해방": 8019,
      "너가": 8020,
      "하얀": 8021,
      "러브": 8022,
      "##시스테": 8023,
      "##했나": 8024,
      "의장": 8025,
      "문서": 8026,
      "항목": 8027,
      "비서": 8028,
      "균형": 8029,
      "끊임없이": 8030,
      "엔딩": 8031,
      "정유": 8032,
      "마스터": 8033,
      "##우를": 8034,
      "##느니": 8035,
      "54": 8036,
      "늙은": 8037,
      "남기": 8038,
      "드루": 8039,
      "파란": 8040,
      "교환": 8041,
      "분위기를": 8042,
      "국민들의": 8043,
      "감상": 8044,
      "##후보": 8045,
      "##젤": 8046,
      "##고도": 8047,
      "착용": 8048,
      "태도": 8049,
      "안쓰": 8050,
      "고교": 8051,
      "기원": 8052,
      "유형": 8053,
      "밀리": 8054,
      "##민족": 8055,
      "예약": 8056,
      "2013": 8057,
      "트리": 8058,
      "추석": 8059,
      "##으로도": 8060,
      "사이에서": 8061,
      "자제": 8062,
      "네티즌": 8063,
      "실시간": 8064,
      "치러": 8065,
      "##TA": 8066,
      "상당한": 8067,
      "속이": 8068,
      "##감은": 8069,
      "##분간": 8070,
      "##ᆨ이": 8071,
      "따뜻한": 8072,
      "추락": 8073,
      "한일": 8074,
      "줬": 8075,
      "당하고": 8076,
      "머리에": 8077,
      "젊은이": 8078,
      "##주도": 8079,
      "있는게": 8080,
      "롤": 8081,
      "연합뉴스": 8082,
      "##타는": 8083,
      "아오": 8084,
      "변화를": 8085,
      "수수료": 8086,
      "여기저기": 8087,
      "인성": 8088,
      "부장": 8089,
      "썸": 8090,
      "##가라": 8091,
      "부하": 8092,
      "다음화": 8093,
      "##고기": 8094,
      "직무": 8095,
      "##높": 8096,
      "후손": 8097,
      "하네요": 8098,
      "##드러": 8099,
      "##후에": 8100,
      "캐나다": 8101,
      "움직임": 8102,
      "누나": 8103,
      "압수수": 8104,
      "##적은": 8105,
      "어려울": 8106,
      "코스피": 8107,
      "어떻게든": 8108,
      "아닌지": 8109,
      "잘라": 8110,
      "진짜로": 8111,
      "만만": 8112,
      "정은이": 8113,
      "##인도": 8114,
      "프레임": 8115,
      "눈물을": 8116,
      "보여주고": 8117,
      "기어": 8118,
      "쪽팔": 8119,
      "재미있게": 8120,
      "가족이": 8121,
      "##제한": 8122,
      "##대학교": 8123,
      "번호": 8124,
      "생길": 8125,
      "신입": 8126,
      "나타난": 8127,
      "자신들의": 8128,
      "##국으로": 8129,
      "##있을": 8130,
      "비정규": 8131,
      "##현은": 8132,
      "충실": 8133,
      "벌금": 8134,
      "##그런": 8135,
      "수주": 8136,
      "요즘은": 8137,
      "뒤집어": 8138,
      "##않아": 8139,
      "깔끔": 8140,
      "##럽고": 8141,
      "어케": 8142,
      "일본을": 8143,
      "부지": 8144,
      "보관": 8145,
      "굿": 8146,
      "##의가": 8147,
      "좁": 8148,
      "메뉴": 8149,
      "신중": 8150,
      "부분은": 8151,
      "차를": 8152,
      "조금이": 8153,
      "홀로": 8154,
      "제주도": 8155,
      "나오는데": 8156,
      "막말": 8157,
      "뒤를": 8158,
      "달라고": 8159,
      "25일": 8160,
      "욕먹": 8161,
      "##론을": 8162,
      "##든다": 8163,
      "노력을": 8164,
      "올랐": 8165,
      "버린": 8166,
      "##믿": 8167,
      "##기준": 8168,
      "##쥬": 8169,
      "미개": 8170,
      "천만": 8171,
      "##봤자": 8172,
      "인원": 8173,
      "2020": 8174,
      "허락": 8175,
      "##통이": 8176,
      "##년을": 8177,
      "거둬": 8178,
      "주제에": 8179,
      "안타깝": 8180,
      "곳은": 8181,
      "##선에": 8182,
      "##즈를": 8183,
      "8일": 8184,
      "브로": 8185,
      "만일": 8186,
      "##로워": 8187,
      "##일뿐": 8188,
      "넣고": 8189,
      "##소한": 8190,
      "런던": 8191,
      "윈": 8192,
      "동참": 8193,
      "평점": 8194,
      "##밑": 8195,
      "려는": 8196,
      "리뷰": 8197,
      "주먹": 8198,
      "보았다": 8199,
      "##터를": 8200,
      "싼": 8201,
      "##가며": 8202,
      "##우의": 8203,
      "이름은": 8204,
      "##만도": 8205,
      "##스키": 8206,
      "##심한": 8207,
      "##구먼": 8208,
      "채택": 8209,
      "그런가": 8210,
      "제이": 8211,
      "##잡이": 8212,
      "조종": 8213,
      "살리": 8214,
      "소련": 8215,
      "윤미": 8216,
      "기회가": 8217,
      "불행": 8218,
      "##자금": 8219,
      "##력에": 8220,
      "##학을": 8221,
      "정경": 8222,
      "스릴": 8223,
      "손님": 8224,
      "유동": 8225,
      "이영": 8226,
      "된다면": 8227,
      "찾을": 8228,
      "행복한": 8229,
      "보는데": 8230,
      "싶어서": 8231,
      "보완": 8232,
      "##겠습니까": 8233,
      "문제인": 8234,
      "취약": 8235,
      "천천": 8236,
      "을까": 8237,
      "남친": 8238,
      "진술": 8239,
      "본인의": 8240,
      "더라도": 8241,
      "##있는거": 8242,
      "교수는": 8243,
      "짐승": 8244,
      "시대에": 8245,
      "연방": 8246,
      "했다는": 8247,
      "웃겨": 8248,
      "유입": 8249,
      "불매운동": 8250,
      "부사": 8251,
      "##분들이": 8252,
      "파트너": 8253,
      "장점": 8254,
      "무척": 8255,
      "도저히": 8256,
      "11일": 8257,
      "##세는": 8258,
      "나베": 8259,
      "거대": 8260,
      "틀린": 8261,
      "더블": 8262,
      "##하이": 8263,
      "포함한": 8264,
      "응원합니다": 8265,
      "매니": 8266,
      "##밀리": 8267,
      "꽂": 8268,
      "찍은": 8269,
      "갇": 8270,
      "있죠": 8271,
      "##소에서": 8272,
      "잭": 8273,
      "6일": 8274,
      "##으로만": 8275,
      "부딪": 8276,
      "국회의": 8277,
      "그랬": 8278,
      "굽": 8279,
      "급증": 8280,
      "##더라구요": 8281,
      "한심하다": 8282,
      "중국에서": 8283,
      "이스라": 8284,
      "파리": 8285,
      "12일": 8286,
      "완벽한": 8287,
      "##거같은데": 8288,
      "##세의": 8289,
      "귀여운": 8290,
      "##관에": 8291,
      "끝이": 8292,
      "문제로": 8293,
      "랭": 8294,
      "허리": 8295,
      "##갱": 8296,
      "##흑": 8297,
      "비즈니스": 8298,
      "짖": 8299,
      "##ᆯ런": 8300,
      "하셨": 8301,
      "잘생겨": 8302,
      "이전에": 8303,
      "13일": 8304,
      "이념": 8305,
      "동영상": 8306,
      "##과정": 8307,
      "압수수색": 8308,
      "버려": 8309,
      "##양이": 8310,
      "##재를": 8311,
      "##떨": 8312,
      "스페인": 8313,
      "자신에게": 8314,
      "알아야": 8315,
      "##대상": 8316,
      "내다": 8317,
      "대화를": 8318,
      "##화와": 8319,
      "왕따": 8320,
      "음성": 8321,
      "##벌이": 8322,
      "16일": 8323,
      "##버리는": 8324,
      "렌": 8325,
      "##으세요": 8326,
      "투어": 8327,
      "창원": 8328,
      "앞장": 8329,
      "못생": 8330,
      "구단": 8331,
      "가격이": 8332,
      "얻은": 8333,
      "##좋은": 8334,
      "##물고": 8335,
      "IM": 8336,
      "1천": 8337,
      "천천히": 8338,
      "너같은": 8339,
      "봐서": 8340,
      "##로의": 8341,
      "인생을": 8342,
      "지속적으로": 8343,
      "하나님": 8344,
      "양산": 8345,
      "하라고": 8346,
      "남주": 8347,
      "9일": 8348,
      "##통을": 8349,
      "##식의": 8350,
      "##재가": 8351,
      "짱개": 8352,
      "건네": 8353,
      "핸드폰": 8354,
      "만든다": 8355,
      "전역": 8356,
      "세금을": 8357,
      "##스포": 8358,
      "##이죠": 8359,
      "##하셔": 8360,
      "없기": 8361,
      "전화를": 8362,
      "화제": 8363,
      "광역": 8364,
      "고문": 8365,
      "명품": 8366,
      "듣는": 8367,
      "비하": 8368,
      "놓은": 8369,
      "계속해서": 8370,
      "##년간": 8371,
      "지원을": 8372,
      "규칙": 8373,
      "본래": 8374,
      "부각": 8375,
      "##00만": 8376,
      "창의": 8377,
      "##면을": 8378,
      "청약": 8379,
      "##쏘": 8380,
      "오버": 8381,
      "궤": 8382,
      "이러니": 8383,
      "끔찍": 8384,
      "캠페": 8385,
      "##기다": 8386,
      "##공을": 8387,
      "23일": 8388,
      "##향을": 8389,
      "이수": 8390,
      "##다녀": 8391,
      "##ᆻ다가": 8392,
      "59": 8393,
      "영화에서": 8394,
      "##페이지에": 8395,
      "기능을": 8396,
      "노래를": 8397,
      "교도": 8398,
      "내지": 8399,
      "##이라며": 8400,
      "정지": 8401,
      "있었습니다": 8402,
      "회장은": 8403,
      "생각보다": 8404,
      "##15": 8405,
      "지혜": 8406,
      "##자동": 8407,
      "있다가": 8408,
      "많네": 8409,
      "현재의": 8410,
      "##회견": 8411,
      "##이게": 8412,
      "이익을": 8413,
      "##신문": 8414,
      "구현": 8415,
      "나빠": 8416,
      "침묵": 8417,
      "그들을": 8418,
      "변동": 8419,
      "배당": 8420,
      "27일": 8421,
      "물타기": 8422,
      "일러": 8423,
      "##ᆷ프": 8424,
      "약한": 8425,
      "생각했다": 8426,
[...]
